{
  "</s>": 0,
  "<unk>": 1,
  ",": 2,
  ".": 3,
  "\u2581the": 4,
  "\u2581a": 5,
  "\u2581of": 6,
  "\u2581to": 7,
  "\u2581and": 8,
  "\u2581v": 9,
  "\u2581in": 10,
  "s": 11,
  "\u2581na": 12,
  "\u2581sa": 13,
  "\u2581(": 14,
  "\u2581": 15,
  "'": 16,
  "\u2581-": 17,
  ":": 18,
  "?": 19,
  ")": 20,
  "\u2581for": 21,
  "\u2581s": 22,
  "\u2581I": 23,
  "a": 24,
  "-": 25,
  "\u2581is": 26,
  "e": 27,
  "\u2581je": 28,
  "\u2581by": 29,
  "m": 30,
  "\u2581that": 31,
  "\u2581you": 32,
  "u": 33,
  "\u2581o": 34,
  "\u2581on": 35,
  "\u2581be": 36,
  "\u2581pre": 37,
  "y": 38,
  "\u2581with": 39,
  "\u2581z": 40,
  "\u2581\"": 41,
  "ch": 42,
  "\u2581\u017ee": 43,
  "\u2581The": 44,
  "\u2581do": 45,
  "t": 46,
  "ej": 47,
  "\u2581or": 48,
  "!": 49,
  "om": 50,
  "\u2581it": 51,
  "i": 52,
  "\u2581alebo": 53,
  "\u2581as": 54,
  "ho": 55,
  "\u2581are": 56,
  "\u2581ako": 57,
  "\u2581V": 58,
  "\u2581not": 59,
  "\u2581A": 60,
  ";": 61,
  "\u00e1": 62,
  "\u2581this": 63,
  "\u2581si": 64,
  "\u2581k": 65,
  "...": 66,
  "/": 67,
  "\u2581za": 68,
  "ing": 69,
  "\u2581have": 70,
  "\u2581som": 71,
  "\u2581from": 72,
  "\u2581po": 73,
  "\u2581ktor\u00e9": 74,
  "mi": 75,
  "\u00e9": 76,
  "\u2581at": 77,
  "o": 78,
  "\u2581was": 79,
  "\u2581No": 80,
  "te": 81,
  "\u2581S": 82,
  "\u25811": 83,
  "\u2581s\u00fa": 84,
  "\u2581shall": 85,
  "\u2581an": 86,
  "\u2581so": 87,
  "\u00fa": 88,
  "ou": 89,
  "\u2581aby": 90,
  "\u2581which": 91,
  "\u2581L": 92,
  "\u2581Article": 93,
  "ia": 94,
  "\u2581od": 95,
  "\u2581we": 96,
  "\u25812": 97,
  "\u2581all": 98,
  "\u2581European": 99,
  "\u2581your": 100,
  "\u2581can": 101,
  "\u00fd": 102,
  "ov": 103,
  "\u2581You": 104,
  "\u2581will": 105,
  "ed": 106,
  "d": 107,
  "\u2581P": 108,
  "\u2581pri": 109,
  "\u2581In": 110,
  "\u0161": 111,
  "h": 112,
  "n": 113,
  "\u2581Regulation": 114,
  "\u2581Commission": 115,
  "\u2581aj": 116,
  "re": 117,
  "\u2581me": 118,
  "\u2581.": 119,
  "\u2581It": 120,
  "\u2581\u010do": 121,
  "\u2581C": 122,
  "\u2581nie": 123,
  "\u25813": 124,
  "\u2581should": 125,
  "\u2581has": 126,
  "me": 127,
  "ly": 128,
  "l": 129,
  "\u2581u": 130,
  ").": 131,
  "\u2581out": 132,
  "\u2581de": 133,
  "\u2581\u010d": 134,
  "\"": 135,
  "\u2581other": 136,
  "\u2581vo": 137,
  "),": 138,
  "\u00ed": 139,
  "\u2581Member": 140,
  "\u2581To": 141,
  "\u2581B": 142,
  "\u2581tak": 143,
  "\u2581my": 144,
  "\u2581one": 145,
  "\u2581ich": 146,
  "\u2581day": 147,
  "\u2581their": 148,
  "\u2581Je": 149,
  "\u00fdch": 150,
  "S": 151,
  "ES": 152,
  "\u2581its": 153,
  "\u2581This": 154,
  "\u2581he": 155,
  "\u2581by\u0165": 156,
  "ne": 157,
  "\u2581up": 158,
  "\u2581been": 159,
  "A": 160,
  "\u2581vy": 161,
  "\u2581may": 162,
  "\u2581they": 163,
  "\u2581more": 164,
  "b": 165,
  "\u25815": 166,
  "EC": 167,
  "\u25814": 168,
  "c": 169,
  "in": 170,
  "\u2581no": 171,
  "\u2581p": 172,
  "\u2581Na": 173,
  "\u2581E\u00da": 174,
  "\u2581ne": 175,
  "\u2581We": 176,
  "\u0165": 177,
  "n\u00e9": 178,
  "\u2581but": 179,
  "\u2581States": 180,
  "\u2581also": 181,
  "\u2581know": 182,
  "\u2581sme": 183,
  "\u2581What": 184,
  "v": 185,
  "\u2581what": 186,
  "\u2581ale": 187,
  "\u2581ktor\u00fd": 188,
  "al": 189,
  "\u2581about": 190,
  "\u2581if": 191,
  "\u2581E": 192,
  "\u2581were": 193,
  "\u2581any": 194,
  "\u2581there": 195,
  "\u2581go": 196,
  "\u2581into": 197,
  "\u2581than": 198,
  "\u2581len": 199,
  "\u2581would": 200,
  "\u2581O": 201,
  "\u2581EU": 202,
  "\u2581\u010dl\u00e1nku": 203,
  "\u2581jeho": 204,
  "\u2581ak": 205,
  "\u2581ma": 206,
  "\u2581K": 207,
  "\u2581m\u00f4\u017ee": 208,
  ".\"": 209,
  "\u2581Union": 210,
  "mu": 211,
  "\u2581Pod": 212,
  "\u2581Council": 213,
  "\u2581time": 214,
  "C": 215,
  "\u2581Z": 216,
  "\u2581D": 217,
  "\u2581pod\u013ea": 218,
  "j": 219,
  "\u2581zo": 220,
  "ie": 221,
  "\u2581mi": 222,
  "\u2581like": 223,
  "\u2581ods": 224,
  "li": 225,
  "\u2581ste": 226,
  "\u2581Ak": 227,
  "\u2581And": 228,
  "\u2581selected": 229,
  "\u25816": 230,
  "\u258110": 231,
  "\u2581svoj": 232,
  "\u2581Po": 233,
  "\u2581ke\u010f": 234,
  "\u00f2": 235,
  "\u25811.": 236,
  "la": 237,
  "\u2581Nie": 238,
  "jat": 239,
  "n\u00e1": 240,
  "\u2581use": 241,
  "\u2581T": 242,
  "\u2581Events": 243,
  "\u2581tu": 244,
  "\u2581zvolen\u00fd": 245,
  "\u2581just": 246,
  "ve": 247,
  "\u2581his": 248,
  "\u2581information": 249,
  "\u2581m\u00e1": 250,
  "\u2581He": 251,
  "\u2581such": 252,
  "\u2581ho": 253,
  "\u2581\u010co": 254,
  "er": 255,
  "\u2581bude": 256,
  "\u2581who": 257,
  "ll": 258,
  "\u2581under": 259,
  "\u2581pred": 260,
  "or": 261,
  "to": 262,
  "\u2581bol": 263,
  "\u2581when": 264,
  "\u2581H": 265,
  "\u2581our": 266,
  "2": 267,
  "z": 268,
  "\u2581right": 269,
  "\u2581Do": 270,
  "\u2581u\u017e": 271,
  "\u2581don": 272,
  "\u2581medzi": 273,
  "\u2581F": 274,
  "\u2581here": 275,
  "\u2581them": 276,
  "\u2581M": 277,
  "\u2581get": 278,
  "\u2581pr\u00edpade": 279,
  "\u2581only": 280,
  "\u2581boli": 281,
  "\u2581s\u00falade": 282,
  "\u2581did": 283,
  "\u258120": 284,
  "k": 285,
  "\u2581him": 286,
  "\u2581toho": 287,
  "\u2581mg": 288,
  "\u2581tejto": 289,
  "\u2581nariadenia": 290,
  "ka": 291,
  "\u2581roku": 292,
  "\u2581had": 293,
  "\u2581where": 294,
  "\u2581these": 295,
  "\u2581ktor\u00e1": 296,
  "\u2581must": 297,
  "\u2581oblasti": 298,
  "\u2581those": 299,
  "\u2581new": 300,
  "es": 301,
  "g": 302,
  "\u2581need": 303,
  "\u2581Komisia": 304,
  "\u2581[": 305,
  "\u2581first": 306,
  "\u2581For": 307,
  "\u00e9ho": 308,
  "\u2581viac": 309,
  "\u2581some": 310,
  "\u2581take": 311,
  "\u2581her": 312,
  "\u2581between": 313,
  "\u25817": 314,
  "\u2581e": 315,
  "\u2581following": 316,
  "]": 317,
  "\u2581re": 318,
  "\u2581If": 319,
  "\u2581Eur\u00f3psk": 320,
  "\u2581down": 321,
  "na": 322,
  "\u010d": 323,
  "\u2581jej": 324,
  "\u2581used": 325,
  "\u2581us": 326,
  "\u2581R": 327,
  "\u2581products": 328,
  "\u2581tohto": 329,
  "ky": 330,
  "\u2581U": 331,
  "\u2581i": 332,
  "B": 333,
  "\u2581bolo": 334,
  "\u2581pod": 335,
  "\u2581could": 336,
  "\u2581That": 337,
  "\u258118": 338,
  "\u25818": 339,
  "\u2581market": 340,
  "\u2581Oh": 341,
  "\u2581So": 342,
  "\u2581State": 343,
  "\u2581bez": 344,
  "\u2581measures": 345,
  "\u2581Rady": 346,
  "\u2581people": 347,
  "\u2581a\u017e": 348,
  "\u2581mus\u00ed": 349,
  "\u2581Directive": 350,
  "\u2581r\u00e1mci": 351,
  "\u2581Komisie": 352,
  "\u2581\u010cl\u00e1nok": 353,
  "\u2581bola": 354,
  "\u2581Annex": 355,
  "E": 356,
  "n\u00fd": 357,
  "\u2581N": 358,
  "\u258112": 359,
  "r": 360,
  "\u2581Pre": 361,
  "ok": 362,
  "\u2581well": 363,
  "\u2581accordance": 364,
  "\u2581mali": 365,
  "lo": 366,
  "\u2581over": 367,
  "\u2581two": 368,
  "\u2581see": 369,
  "\u258124": 370,
  "\u2581...": 371,
  "\u258119": 372,
  "\u2581m": 373,
  "\u2581g": 374,
  "\u2581\u010dlensk\u00fd": 375,
  "\u2581after": 376,
  "\u2581make": 377,
  "\u2581\u010di": 378,
  "\u2581want": 379,
  "\u2581Pri": 380,
  "\u2581Ako": 381,
  "nie": 382,
  "on": 383,
  "\u2581set": 384,
  "\u2581v\u0161etky": 385,
  "\u2581now": 386,
  "\u2581Za": 387,
  "\u2581made": 388,
  "\u2581z\u00e1klade": 389,
  "p": 390,
  "\u2581got": 391,
  "\u2581Ale": 392,
  "\u2581Ne": 393,
  "\u2581W": 394,
  "\u258115": 395,
  "\u2581EUR": 396,
  "\u25819": 397,
  "\u258125": 398,
  "\u2581m\u00f4\u017eu": 399,
  "\u2581ide": 400,
  "\u2581b": 401,
  "\u2581does": 402,
  "\u25814.": 403,
  "\u258121": 404,
  "\u258130": 405,
  "\u2581t\u00fdchto": 406,
  "3": 407,
  "\u2581work": 408,
  "\u2581ja": 409,
  "\u2581years": 410,
  "\u2581G": 411,
  "\u2581within": 412,
  "\u2581But": 413,
  "\u00fdm": 414,
  "\u2581Community": 415,
  "\u2581way": 416,
  "\u2581name": 417,
  "\u2581'": 418,
  "\u2581tieto": 419,
  "\u258122": 420,
  "\u2581think": 421,
  "\u2581good": 422,
  "\u2581v\u0161ak": 423,
  "\u2581ve\u013emi": 424,
  "\u2581data": 425,
  "\u2581tom": 426,
  "\u2581provided": 427,
  "\u2581tie\u017e": 428,
  "ku": 429,
  "\u2581po\u010das": 430,
  "\u2581ti": 431,
  "\u2581order": 432,
  "\u2581najm\u00e4": 433,
  "f": 434,
  "\u2581ktor\u00ed": 435,
  "P": 436,
  "\u2581v\u0161etk\u00fdch": 437,
  "\u2581Ja": 438,
  "\u2581national": 439,
  "\u2581last": 440,
  "ce": 441,
  "\u2581inform\u00e1cie": 442,
  "\u2581particular": 443,
  "\u2581&": 444,
  "\u2581\u00c1no": 445,
  "\u2581real": 446,
  "\u2581very": 447,
  "\u2581maj\u00fa": 448,
  "\u2581f": 449,
  "\u258111": 450,
  "en": 451,
  "\u2581Toto": 452,
  "\u2581system": 453,
  "och": 454,
  "\u2581potrebn\u00e9": 455,
  "EU": 456,
  "\u25812.": 457,
  "\u2581she": 458,
  "\u2581II": 459,
  "\u2581how": 460,
  "ov\u00e9": 461,
  "\u2581financial": 462,
  "\u25813.": 463,
  "ova\u0165": 464,
  "\u2581referred": 465,
  "il": 466,
  "H": 467,
  "\u2581Yea": 468,
  "\u2581hotel": 469,
  "\u2581before": 470,
  "\u2581tento": 471,
  "\u258117": 472,
  "\u2581God": 473,
  "\u2581back": 474,
  "\u2581opatrenia": 475,
  "\u2581Decision": 476,
  "i\u0165": 477,
  "\u2581Parliament": 478,
  "\u2581services": 479,
  "\u2581They": 480,
  "1": 481,
  "\u2581place": 482,
  "\u2581uveden\u00e9": 483,
  "va": 484,
  "\u2581ktor\u00fdch": 485,
  "\u2581through": 486,
  "\u2581including": 487,
  "\u2581c": 488,
  "\u2581cie\u013eom": 489,
  "\u2581\u0161t\u00e1ty": 490,
  "D": 491,
  "\u2581part": 492,
  "\u2581Vy": 493,
  "\u2581/": 494,
  "\u258123": 495,
  "\u2581regard": 496,
  "\u2581countries": 497,
  "\u2581patients": 498,
  "\u2581conditions": 499,
  "ca": 500,
  "\u2581ju": 501,
  "\u2581t\u00fdm": 502,
  "\u2581period": 503,
  "V": 504,
  "nna": 505,
  "\u2581ktor\u00fdm": 506,
  "\u2581tam": 507,
  "\u2581each": 508,
  "\u2581point": 509,
  "\u2581case": 510,
  "\u2581proti": 511,
  "N": 512,
  "M": 513,
  "\u2581t": 514,
  "\u2581level": 515,
  "\u258113": 516,
  "le": 517,
  "\u2581number": 518,
  "ci": 519,
  "\u2581preto": 520,
  "\u2581ani": 521,
  "\u2581year": 522,
  "\u2581public": 523,
  "\u25815.": 524,
  "\u2581most": 525,
  "\u2581same": 526,
  "\u2581All": 527,
  "\u2581On": 528,
  "I": 529,
  "E\u00da": 530,
  "\u2581There": 531,
  "F": 532,
  "\u2581even": 533,
  "\u2581going": 534,
  "\u017e": 535,
  "\u2581nariadenie": 536,
  "\u2581How": 537,
  "\u2581d": 538,
  "\u2581As": 539,
  "\u2581Eur\u00f3pskeho": 540,
  "\u258114": 541,
  "\u25816.": 542,
  "\u2581trhu": 543,
  "\u2581Well": 544,
  "\u2581then": 545,
  "\u2581\u010dl\u00e1nok": 546,
  "\u2581spolo\u010dnosti": 547,
  "\u2581product": 548,
  "\u2581l": 549,
  "n\u00ed": 550,
  "\u2581tomto": 551,
  "\u2581Mr": 552,
  "\u2581pacientov": 553,
  "\u2581THE": 554,
  "\u2581Committee": 555,
  "\u2581rokov": 556,
  "\u2581because": 557,
  "\u2581nie\u010do": 558,
  "\u258116": 559,
  "\u2581man": 560,
  "\u2581necessary": 561,
  "\u2581help": 562,
  "\u2581n\u00e1s": 563,
  "\u2581without": 564,
  "\u2581Re": 565,
  "\u2581mal": 566,
  "\u2581\u0165a": 567,
  "\u2581date": 568,
  "\u2581authorities": 569,
  "\u2581rules": 570,
  "ic": 571,
  "\u2581vr\u00e1tane": 572,
  "\u2581ensure": 573,
  "po": 574,
  "\u2581toto": 575,
  "\u2581svoje": 576,
  "\u2581means": 577,
  "ni": 578,
  "\u2581\u00da": 579,
  "R": 580,
  "be": 581,
  "\u2581support": 582,
  "\u258126": 583,
  "\u2581available": 584,
  "\u2581during": 585,
  "an": 586,
  "\u2581come": 587,
  "th": 588,
  "\u2581ma\u0165": 589,
  "\u2581v\u00e1m": 590,
  "\u2581(1)": 591,
  "ov\u00e1": 592,
  "\u2581life": 593,
  "\u2581e\u0161te": 594,
  ",\"": 595,
  "ers": 596,
  "\u2581aid": 597,
  "\u2581paragraph": 598,
  "uje": 599,
  "n\u00fdch": 600,
  "T": 601,
  "\u258110.": 602,
  "\u2581mu": 603,
  "\u2581\u00fanie": 604,
  "\u2581\u00danie": 605,
  "\u017ee": 606,
  "\u2581pokia\u013e": 607,
  "\u2581being": 608,
  "K": 609,
  "\u2581J": 610,
  "ovanie": 611,
  "\u2581said": 612,
  "\u2581non": 613,
  "\u2581Europe": 614,
  "\u2581per": 615,
  "\u2581risk": 616,
  "\u2581roz": 617,
  "\u2581bud\u00fa": 618,
  "\u2581h": 619,
  "\u2581New": 620,
  "ova": 621,
  "\u00edm": 622,
  "ny": 623,
  "\u2581ten": 624,
  "\u2581v\u00e1s": 625,
  "\u2581nad": 626,
  "ol": 627,
  "\u2581development": 628,
  "\u2581She": 629,
  "j\u00fa": 630,
  "\u2581report": 631,
  "\u2581\u0161t\u00e1tov": 632,
  "4": 633,
  "\u258112.": 634,
  "O": 635,
  "\u2581requirements": 636,
  "\u00da": 637,
  "\u2581\u013eud\u00ed": 638,
  "\u25812007": 639,
  "\u2581+": 640,
  "\u2581policy": 641,
  "no": 642,
  "ant": 643,
  "\u2581long": 644,
  "\u2581area": 645,
  "\u2581application": 646,
  "ba": 647,
  "\u2581account": 648,
  "\u2581Tak": 649,
  "\u2581say": 650,
  "\u2581teraz": 651,
  "\u2581treatment": 652,
  "\u2581Spolo\u010denstva": 653,
  "nej": 654,
  "\u25812008": 655,
  "\u2581certain": 656,
  "\u258111.": 657,
  "el": 658,
  "the": 659,
  "de": 660,
  "enie": 661,
  "\u2581provide": 662,
  "os\u0165": 663,
  "\u2581many": 664,
  "\u2581100": 665,
  "\u2581smernice": 666,
  "\u2581prostredn\u00edctvom": 667,
  "\u2581kde": 668,
  "\u2581appropriate": 669,
  "ma": 670,
  "\u25818.": 671,
  "at": 672,
  "\u258150": 673,
  "\u2581ml": 674,
  "\u2581musia": 675,
  "\u25812009": 676,
  "ami": 677,
  "\u2581taken": 678,
  "ta": 679,
  "\u2581own": 680,
  "\u2581preto\u017ee": 681,
  "nia": 682,
  "it": 683,
  "\u2581economic": 684,
  "\u2581three": 685,
  "\u2581third": 686,
  "\u2581(2)": 687,
  "\u2581s\u00favislosti": 688,
  "\u2581mo\u017eno": 689,
  "\u2581basis": 690,
  "us": 691,
  "L": 692,
  "\u2581body": 693,
  "\u2581pomoc": 694,
  "\u2581mala": 695,
  "\u2581OF": 696,
  "\u2581therefore": 697,
  "\u2581too": 698,
  "\u2581mo\u017en\u00e9": 699,
  "\u25817.": 700,
  "\u2581n\u00e1m": 701,
  "est": 702,
  "\u2581high": 703,
  "is": 704,
  "\u2581possible": 705,
  "\u2581Jeho": 706,
  "\u00e1cie": 707,
  "x": 708,
  "\u2581against": 709,
  "\u2581OJ": 710,
  "\u2581potom": 711,
  "\u2581specific": 712,
  "\u2581My": 713,
  "\u2581common": 714,
  "\u2581podmienky": 715,
  "com": 716,
  "\u2581both": 717,
  "\u2581\u00fadajov": 718,
  "ko": 719,
  "\u2581world": 720,
  "\u2581free": 721,
  "\u2581much": 722,
  "ovi": 723,
  "\u2581in\u00e9": 724,
  "U": 725,
  "\u2581t\u00fdkaj\u00face": 726,
  "\u2581iba": 727,
  "\u2581let": 728,
  "\u2581off": 729,
  "\u2581provisions": 730,
  "\u2581energy": 731,
  "\u2581ES": 732,
  "\u2581end": 733,
  "\u2581zrete\u013eom": 734,
  "\u2581am": 735,
  "\u2581important": 736,
  "\u2581ty": 737,
  "am": 738,
  "\u2581parlamentu": 739,
  "\u2581\u00farovni": 740,
  "\u2581control": 741,
  "osti": 742,
  "\u2581activities": 743,
  "\u25812006": 744,
  "\u2581Treaty": 745,
  "\u2581Where": 746,
  "\u2581relevant": 747,
  "ation": 748,
  "\u2581slu\u017eby": 749,
  "\u2581person": 750,
  "n\u00fa": 751,
  "\u2581country": 752,
  "\u25819.": 753,
  "by": 754,
  "\u2581Yes": 755,
  "\u2581protection": 756,
  "\u2581something": 757,
  "\u2581p\u00edsm": 758,
  "ty": 759,
  "\u2581tell": 760,
  "\u2581May": 761,
  "G": 762,
  "\u2581still": 763,
  "\u2581least": 764,
  "\u2581give": 765,
  "\u2581\u010dasti": 766,
  "za": 767,
  "\u2581find": 768,
  "\u2581different": 769,
  "\u2581social": 770,
  "\u2581rok": 771,
  "\u2581apply": 772,
  "\u2581pr\u00edlohe": 773,
  "\u2581law": 774,
  "\u2581Agreement": 775,
  "di": 776,
  "\u2581concerned": 777,
  "\u2581Why": 778,
  "tel": 779,
  "st": 780,
  "\u2581ktor\u00fa": 781,
  "\u2581v\u0161etko": 782,
  "\u2581given": 783,
  "\u2581\u010dlensk\u00e9": 784,
  "\u2581pomoci": 785,
  "\u2581Dobre": 786,
  "\u2581Pre\u010do": 787,
  "\u2581mean": 788,
  "\u258128": 789,
  "\u2581children": 790,
  "\u2581Hey": 791,
  "\u2581\u00fa\u010dely": 792,
  "\u2022": 793,
  "\u2581applicable": 794,
  "\u2581miesto": 795,
  "\u2581Preto": 796,
  "\u2581dose": 797,
  "\u2581based": 798,
  "\u2581in\u00fdch": 799,
  "\u2581water": 800,
  "\u2581production": 801,
  "\u2581When": 802,
  "\u2581inform\u00e1ci\u00ed": 803,
  "\u2581syst\u00e9mu": 804,
  "\u2581Ke\u010f": 805,
  "\u2581management": 806,
  "uj\u00fa": 807,
  "\u2581m\u00f4j": 808,
  "\u2581price": 809,
  "W": 810,
  "\u2581Hej": 811,
  "\u2581de\u0148": 812,
  "ra": 813,
  "\u2581further": 814,
  "\u2581Ma": 815,
  "ec": 816,
  "ov\u00fdch": 817,
  "\u25812005": 818,
  "ir": 819,
  "\u2581ne\u017e": 820,
  "\u2581De": 821,
  "\u2581access": 822,
  "\u2581value": 823,
  "ak": 824,
  "\u2581slu\u017eieb": 825,
  "enia": 826,
  "\u258127": 827,
  "ke": 828,
  "\u2581decision": 829,
  "\u2581service": 830,
  "\u2581implementation": 831,
  "\u2581III": 832,
  "\u25812010": 833,
  "\u2581December": 834,
  "\u2581force": 835,
  "\u2581type": 836,
  "\u2581However": 837,
  "\u258131": 838,
  "\u2581Ho": 839,
  "\u2581little": 840,
  "kov": 841,
  "\u2581Oka": 842,
  "ar": 843,
  "\u2581tomu": 844,
  "\u2581subject": 845,
  "\u2581test": 846,
  "\u2581im": 847,
  "\u2581whether": 848,
  "\u2581ob": 849,
  "\u2581\u010das\u0165": 850,
  "\u25812004": 851,
  "\u2581above": 852,
  "\u2581un": 853,
  "\u2581uveden\u00fdch": 854,
  "\u2581Having": 855,
  "man": 856,
  "\u2581another": 857,
  "\u2581better": 858,
  "ina": 859,
  "um": 860,
  "\u2581look": 861,
  "\u2581\u010das": 862,
  "\u2581Mus\u00ed": 863,
  "amp": 864,
  "\u2581ex": 865,
  "\u2581days": 866,
  "\u2581jeden": 867,
  "\u2581Od": 868,
  "em": 869,
  "\u2581n": 870,
  "\u2581never": 871,
  "\u2581respect": 872,
  "nom": 873,
  "\u2581human": 874,
  "ment": 875,
  "\u2581mm": 876,
  "\u2581rozhodnutie": 877,
  "\u2581view": 878,
  "\u2581veci": 879,
  "\u2581spolu": 880,
  "\u2581dobre": 881,
  "\u2581business": 882,
  "\u25812011": 883,
  "\u2581pr\u00edstup": 884,
  "\u2581best": 885,
  "\u2581st\u00e1le": 886,
  "up": 887,
  "mer": 888,
  "\u2581less": 889,
  "\u2581opatren\u00ed": 890,
  "\u2581put": 891,
  "od": 892,
  ");": 893,
  "\u2581procedure": 894,
  "\u2581found": 895,
  "\u2581\u00fadaje": 896,
  "\u2581Let": 897,
  "\u2581strany": 898,
  "\u2581tri": 899,
  "\u2581President": 900,
  "19": 901,
  "\u2581r": 902,
  "\u2581pr\u00e1va": 903,
  "\u2581amount": 904,
  "\u2581every": 905,
  "\u2581rozhodnutia": 906,
  "\u2581legal": 907,
  "do": 908,
  "\u2581poriadku": 909,
  "ine": 910,
  "ness": 911,
  "\u2581ni\u010d": 912,
  "\u2581international": 913,
  "\u2581rights": 914,
  "\u2581costs": 915,
  "\u2581ktorej": 916,
  "\u25812013": 917,
  "\u2581taking": 918,
  "\u2581Som": 919,
  "\u2581Go": 920,
  "\u2581why": 921,
  "\u2581already": 922,
  "\u2581online": 923,
  "\u2581quality": 924,
  "\u25812014": 925,
  "OJ": 926,
  "\u2581using": 927,
  "\u2581t\u00fato": 928,
  "\u2581\u010dinnosti": 929,
  "ur": 930,
  "my": 931,
  "Z": 932,
  "\u2581p\u00e1n": 933,
  "et": 934,
  "\u2581ku": 935,
  "\u2581spr\u00e1vy": 936,
  "\u2581An": 937,
  "ach": 938,
  "\u2581ka\u017ed\u00fd": 939,
  "\u2581blood": 940,
  "\u2581\u010dl\u00e1nkom": 941,
  "\u2581\u0161t\u00e1tu": 942,
  "\u2581change": 943,
  "\u2581\u20ac": 944,
  "\u2581second": 945,
  "\u2581tie": 946,
  "\u25812012": 947,
  "\u2581Tento": 948,
  "\u2581Al": 949,
  "\u2581\u010fal\u0161ie": 950,
  "\u2581mohli": 951,
  "\u2581adopted": 952,
  "as": 953,
  "ili": 954,
  "\u2581considered": 955,
  "\u2581Don": 956,
  "\u2581health": 957,
  "ro": 958,
  "\u2581general": 959,
  "\u2581required": 960,
  "\u2581doing": 961,
  "\u2581food": 962,
  "\u2581form": 963,
  "\u2581amended": 964,
  "\u2581Come": 965,
  "\u2581Tak\u017ee": 966,
  "\u00e1cia": 967,
  "os": 968,
  "\u2581full": 969,
  "EHS": 970,
  "ED": 971,
  "\u2581Si": 972,
  "\u2581love": 973,
  "\u2581include": 974,
  "ion": 975,
  "%": 976,
  "ver": 977,
  "\u2581home": 978,
  "\u2581security": 979,
  "\u2581kraj\u00edn": 980,
  "able": 981,
  "ovej": 982,
  "EEC": 983,
  "\u2581transport": 984,
  "\u2581list": 985,
  "\u2581po\u017eiadavky": 986,
  "\u2581action": 987,
  "\u2581_": 988,
  "\u2581authority": 989,
  "\u2581krajiny": 990,
  "\u2581m\u0148a": 991,
  "\u2581co": 992,
  "\u2581concerning": 993,
  "\u2581Mysl\u00ed": 994,
  "\u2581takto": 995,
  "\u258140": 996,
  "\u2581org\u00e1ny": 997,
  "\u2581established": 998,
  "\u2581Co": 999,
  "\u2581povedal": 1000,
  "\u2581trade": 1001,
  "\u2581Thank": 1002,
  "):": 1003,
  "6": 1004,
  "\u2581Tieto": 1005,
  "\u2581met": 1006,
  "iu": 1007,
  "\u2581pr\u00edslu\u0161n\u00e9": 1008,
  "\u2581while": 1009,
  "\u2581politiky": 1010,
  "\u2581safety": 1011,
  "\u2581effects": 1012,
  "\u2581cooperation": 1013,
  "\u2581\u0160": 1014,
  "\u2581total": 1015,
  "\u2581kg": 1016,
  "\u2581malo": 1017,
  "\u2581trh": 1018,
  "\u2581increase": 1019,
  "\u2581things": 1020,
  "\u2581priamo": 1021,
  "\u2581process": 1022,
  "im": 1023,
  "Y": 1024,
  "\u2581ke\u010f\u017ee": 1025,
  "\u2581pri\u010dom": 1026,
  "\u2581syst\u00e9m": 1027,
  "\u2581having": 1028,
  "\u2581months": 1029,
  "\u2581around": 1030,
  "\u2581decembra": 1031,
  "\u2581areas": 1032,
  "_": 1033,
  "\u2581thing": 1034,
  "\u2581July": 1035,
  "\u2581nich": 1036,
  "\u2581since": 1037,
  "\u2581sector": 1038,
  "\u00fdmi": 1039,
  "\u2581opinion": 1040,
  "\u2581svojich": 1041,
  "\u2581naj": 1042,
  "ul": 1043,
  "\u2581These": 1044,
  "\u2581strane": 1045,
  "\u2581napr\u00edklad": 1046,
  "\u2581ECB": 1047,
  "\u2581tvoj": 1048,
  "\u013e": 1049,
  "tra": 1050,
  "line": 1051,
  "\u2581\u017eiadne": 1052,
  "\u2581programme": 1053,
  "\u2581company": 1054,
  "ter": 1055,
  "\u2581systems": 1056,
  "\u2581birth": 1057,
  "\u2581v\u00fdrobkov": 1058,
  "\u2581stanoven\u00e9": 1059,
  "ov\u00fd": 1060,
  "\u2581again": 1061,
  "\u2581T\u00e1to": 1062,
  "\u2581thereof": 1063,
  "\u2581great": 1064,
  "\u2581room": 1065,
  "\u2581hodnoty": 1066,
  "\u2581group": 1067,
  "\u2581Now": 1068,
  "\u2581\u017eivot": 1069,
  "ad": 1070,
  "\u2581okrem": 1071,
  "\u2581rate": 1072,
  "\u2581together": 1073,
  "\u2581competent": 1074,
  "\u2581pr\u00edlohy": 1075,
  "\u2581family": 1076,
  "\u2581until": 1077,
  "\u2581Len": 1078,
  "\u2581anti": 1079,
  "nu": 1080,
  "\u2581At": 1081,
  "tu": 1082,
  "\u2581di": 1083,
  "\u2581results": 1084,
  "\u2581weight": 1085,
  "\u2581Bol": 1086,
  "\u2581sp\u00f4sobom": 1087,
  "\u2581special": 1088,
  "\u2581programu": 1089,
  "\u2581By": 1090,
  "\u2581M\u00e1m": 1091,
  "\u2581technical": 1092,
  "da": 1093,
  "\u2581odseku": 1094,
  "ovan\u00e9": 1095,
  "\u2581June": 1096,
  "\u2581km": 1097,
  "\u2581working": 1098,
  "\u2581\u0161t\u00e1toch": 1099,
  "\u2581power": 1100,
  "\u2581podporu": 1101,
  "\u2581Not": 1102,
  "oval": 1103,
  "\u2581cases": 1104,
  "\u2581nov\u00e9": 1105,
  "\u2581m\u00f4\u017eete": 1106,
  "\u2581Can": 1107,
  "see": 1108,
  "\u2581Pozri": 1109,
  "\u2581dohody": 1110,
  "\u258129": 1111,
  "ate": 1112,
  "\u2581meno": 1113,
  "\u00e1ch": 1114,
  "\u2581course": 1115,
  "\u2581M\u00e1": 1116,
  "\u2581framework": 1117,
  "\u2581Hotel": 1118,
  "\u2581far": 1119,
  "en\u00e9": 1120,
  "\u00edn": 1121,
  "men": 1122,
  "\u2581assessment": 1123,
  "\u2581Your": 1124,
  "\u2581osoby": 1125,
  "\u2581d\u00e1tum": 1126,
  "ity": 1127,
  "\u2581car": 1128,
  "id": 1129,
  "\u2581side": 1130,
  "\u2581t\u00e1to": 1131,
  "\u2581money": 1132,
  "\u2581v\u00fdrobky": 1133,
  "\u2581Republic": 1134,
  "\u2581away": 1135,
  "a\u0165": 1136,
  "nou": 1137,
  "\u2581interest": 1138,
  "\u2581effect": 1139,
  "\u2581pr\u00e1ce": 1140,
  "\u2581call": 1141,
  "\u2581related": 1142,
  "je": 1143,
  "\u25812015": 1144,
  "\u2581single": 1145,
  "\u2581proposal": 1146,
  "\u2581Bo": 1147,
  "\u2581skupiny": 1148,
  "\u2581U\u017e": 1149,
  "\u2581kto": 1150,
  "\u2581poveda\u0165": 1151,
  "\u2581million": 1152,
  "\u2581game": 1153,
  "\u2581section": 1154,
  "\u2581(3)": 1155,
  "\u2581situation": 1156,
  "\u2581night": 1157,
  "\u2581m\u00e1m": 1158,
  "\u2581needs": 1159,
  "nos\u0165": 1160,
  "sa": 1161,
  "hen": 1162,
  "\u2581future": 1163,
  "\u2581always": 1164,
  "\u2581Court": 1165,
  "\u2581sure": 1166,
  "\u258115.": 1167,
  "co": 1168,
  "ob": 1169,
  "\u2581might": 1170,
  "\u2581house": 1171,
  "\u2581industry": 1172,
  "\u25812016": 1173,
  "\u2581Nariadenie": 1174,
  "lov": 1175,
  "\u2581dnes": 1176,
  "\u2581goods": 1177,
  "\u2581\u013eudia": 1178,
  "\u2581\u010falej": 1179,
  "\u2581znamen\u00e1": 1180,
  "\u2581United": 1181,
  "\u2581teda": 1182,
  "\u2581Okrem": 1183,
  "\u2581age": 1184,
  "\u2581whole": 1185,
  "\u2581laid": 1186,
  "\u2581January": 1187,
  "\u2581x": 1188,
  "se": 1189,
  "\u2581Ty": 1190,
  "\u258160": 1191,
  "ies": 1192,
  "\u2581spolo\u010dnos\u0165": 1193,
  "\u2581pou\u017eitie": 1194,
  "\u2581air": 1195,
  "\u2581\u0161t\u00e1t": 1196,
  "\u2581request": 1197,
  "\u2581additional": 1198,
  "\u2581ceny": 1199,
  "\u2581hry": 1200,
  "ovania": 1201,
  "\u2581example": 1202,
  "\u2581due": 1203,
  "\u2581\u00eds\u0165": 1204,
  "\u2581\u00fa": 1205,
  "ry": 1206,
  "\u25810": 1207,
  "\u2581With": 1208,
  "\u2581prices": 1209,
  "ovali": 1210,
  "\u2581obdobia": 1211,
  "pozri": 1212,
  "n\u00e9ho": 1213,
  "\u2581equipment": 1214,
  "\u2581levels": 1215,
  "\u2581program": 1216,
  "\u2581zabezpe\u010di\u0165": 1217,
  "\u2581cannot": 1218,
  "\u2581La": 1219,
  "\u2581Tu": 1220,
  "\u2581ktor\u00e9ho": 1221,
  "\u2581procedures": 1222,
  "dy": 1223,
  "\u2581ktorom": 1224,
  "\u2581rozsahu": 1225,
  "\u2581\u0161": 1226,
  "\u2581Rada": 1227,
  "ist": 1228,
  "\u2581fact": 1229,
  "un": 1230,
  "\u2581believe": 1231,
  "\u2581Just": 1232,
  "\u2581po\u010det": 1233,
  "\u2581able": 1234,
  "son": 1235,
  "ible": 1236,
  "\u2581Ko": 1237,
  "\u2581main": 1238,
  "ze": 1239,
  "\u2581final": 1240,
  "\u2581pro": 1241,
  "od\u013ea": 1242,
  "\u2581question": 1243,
  "\u2581zdrojov": 1244,
  "nica": 1245,
  "ck": 1246,
  "\u2581companies": 1247,
  "\u2581euro": 1248,
  "\u2581Other": 1249,
  "\u2581according": 1250,
  "\u2581establishing": 1251,
  "\u2581research": 1252,
  "\u2581Chce": 1253,
  "\u2581zariadenia": 1254,
  "\u00e8": 1255,
  "\u2581result": 1256,
  "\u2581effective": 1257,
  "\u258116.": 1258,
  "\u2581active": 1259,
  "\u2581light": 1260,
  "\u2581pre\u010do": 1261,
  "\u2581care": 1262,
  "\u2581obsahuje": 1263,
  "\u2581line": 1264,
  "\u2581\u00fa\u010dinnos\u0165": 1265,
  "\u2581pravidl\u00e1": 1266,
  "\u2581agreement": 1267,
  "\u2581t\u00fdmto": 1268,
  "\u2581kind": 1269,
  "\u2581plan": 1270,
  "\u2581show": 1271,
  "\u2581hand": 1272,
  "\u2581n\u00e1vrh": 1273,
  "\u2581d\u00f4le\u017eit\u00e9": 1274,
  "\u2581bezpe\u010dnosti": 1275,
  "ran": 1276,
  "mo": 1277,
  "\u2581reference": 1278,
  "J": 1279,
  "\u2581present": 1280,
  "ex": 1281,
  "en\u00ed": 1282,
  "\u2581October": 1283,
  "\u2581=": 1284,
  "\u2581keep": 1285,
  "\u2581mo\u017enos\u0165": 1286,
  "one": 1287,
  "yl": 1288,
  "\u2581doctor": 1289,
  "\u2581ochranu": 1290,
  "\u258113.": 1291,
  "\u2581impact": 1292,
  "and": 1293,
  "\u2581dn\u00ed": 1294,
  "\u2581zmeny": 1295,
  "\u2581nikdy": 1296,
  "\u2581org\u00e1n": 1297,
  "\u2581Who": 1298,
  "\u2581done": 1299,
  "\u2581tax": 1300,
  "\u2581energie": 1301,
  "\u2581000": 1302,
  "10": 1303,
  "\u2581Tel": 1304,
  "\u2581today": 1305,
  "kay": 1306,
  "for": 1307,
  "\u2581n\u00e1klady": 1308,
  "\u2581small": 1309,
  "str": 1310,
  "\u2581next": 1311,
  "\u2581?": 1312,
  "\u2581local": 1313,
  "\u2581institutions": 1314,
  "AL": 1315,
  "\u2581current": 1316,
  "\u2581cez": 1317,
  "\u2581dispoz\u00edcii": 1318,
  "\u2581Jesus": 1319,
  "\u2581persons": 1320,
  "\u2581lieku": 1321,
  "\u2581t\u00fdch": 1322,
  "\u2581increased": 1323,
  "\u2581investment": 1324,
  "\u2581Look": 1325,
  "\u258114.": 1326,
  "per": 1327,
  "\u2581j\u00fana": 1328,
  "\u2581study": 1329,
  "vo": 1330,
  "w": 1331,
  "ila": 1332,
  "20": 1333,
  "\u2581EESC": 1334,
  "\u25811,": 1335,
  "7": 1336,
  "\u2581priezvisko": 1337,
  "\u00e1m": 1338,
  "eho": 1339,
  "\u2581\u010dase": 1340,
  "part": 1341,
  "\u2581ve\u013ea": 1342,
  "\u2581Mar": 1343,
  "\u2581open": 1344,
  "lan": 1345,
  "\u2581rezerv": 1346,
  "\u2581nariaden\u00edm": 1347,
  "\u2581carried": 1348,
  "pa": 1349,
  "\u2581One": 1350,
  "\u2581lot": 1351,
  "\u2581vplyv": 1352,
  "00": 1353,
  "\u2581obdobie": 1354,
  "\u2581Je\u017ei\u0161": 1355,
  "\u2581times": 1356,
  "\u2581nariadeniu": 1357,
  "\u2581v\u017edy": 1358,
  "\u2581directly": 1359,
  "\u2581please": 1360,
  "\u2581called": 1361,
  "\u2581menej": 1362,
  "\u2581terms": 1363,
  "\u2581Are": 1364,
  "ti": 1365,
  "nosti": 1366,
  "\u2581March": 1367,
  "\u2581once": 1368,
  "\u2581predpisov": 1369,
  "\u2581legislation": 1370,
  "\u2581potreby": 1371,
  "\u2581v\u00fdboru": 1372,
  "\u2581start": 1373,
  "en\u00e1": 1374,
  "\u2581points": 1375,
  "\u2581podmienok": 1376,
  "\u2581Eur\u00f3pska": 1377,
  "ha": 1378,
  "\u2581old": 1379,
  "\u2581lep\u0161ie": 1380,
  "\u2581Pa": 1381,
  "\u2581ko": 1382,
  "\u2581Brussels": 1383,
  "\u0148a": 1384,
  "\u2581deti": 1385,
  "ut": 1386,
  "sk\u00e1": 1387,
  "\u2581addition": 1388,
  "\u2581EEA": 1389,
  "ts": 1390,
  "\u2581heart": 1391,
  "\u2581Be": 1392,
  "ent": 1393,
  "vy": 1394,
  "\u2581EHSV": 1395,
  "\u2581anything": 1396,
  "\u2581thought": 1397,
  "\u2581purposes": 1398,
  "\u2581capacity": 1399,
  "\u2581Please": 1400,
  "\u2581text": 1401,
  "\u2581similar": 1402,
  "\u25812003": 1403,
  "\u2581m\u00e1te": 1404,
  "\u2581Eur\u00f3psky": 1405,
  "\u2581talk": 1406,
  "\u2581*": 1407,
  "\u2581city": 1408,
  "\u2581credit": 1409,
  "\u2581members": 1410,
  "\u2581criteria": 1411,
  "\u2581resources": 1412,
  "\u2581finan\u010dn\u00fdch": 1413,
  "\u2581stop": 1414,
  "\u2581N\u00e1": 1415,
  "\u2581either": 1416,
  "\u2581sem": 1417,
  "pe": 1418,
  "\u2581position": 1419,
  "\u2581maximum": 1420,
  "\u2581dvoch": 1421,
  "\u2581[1],": 1422,
  "vi": 1423,
  "\u25812002": 1424,
  "\u2581studies": 1425,
  "ow": 1426,
  "ah": 1427,
  "\u2581pr\u00e1vnych": 1428,
  "\u2581clear": 1429,
  "\u2581enter": 1430,
  "\u2581feel": 1431,
  "\u2581pursuan": 1432,
  "\u2581become": 1433,
  "12": 1434,
  "\u2581EHP": 1435,
  "ive": 1436,
  "jte": 1437,
  "ud": 1438,
  "\u2581niektor\u00fdch": 1439,
  "\u2581sorry": 1440,
  "ych": 1441,
  "\u2581hours": 1442,
  "\u2581training": 1443,
  "\u2581Slovakia": 1444,
  "ie\u0161": 1445,
  "kom": 1446,
  "\u2581Dr": 1447,
  "\u2581project": 1448,
  "vol": 1449,
  "\u2581individual": 1450,
  "\u2581Mo": 1451,
  "\u00e1n": 1452,
  "ber": 1453,
  "\u2581purpose": 1454,
  "\u00e1lne": 1455,
  "\u258100": 1456,
  "\u2581Vo": 1457,
  "n\u00edm": 1458,
  "\u258190": 1459,
  "\u2581standards": 1460,
  "\u2581Wi": 1461,
  "\u2581spr\u00e1vu": 1462,
  "\u2581Ver": 1463,
  "hoj": 1464,
  "en\u00fd": 1465,
  "\u2581k\u00fdm": 1466,
  "\u2581pou\u017e\u00edva": 1467,
  "age": 1468,
  "\u2581bod": 1469,
  "\u2581AND": 1470,
  "\u2581mohol": 1471,
  "ier": 1472,
  "\u2581budget": 1473,
  "\u2581Mo\u017eno": 1474,
  "tri": 1475,
  "\u2581teba": 1476,
  "\u2581Pro": 1477,
  "\u25812000": 1478,
  "less": 1479,
  "kou": 1480,
  "\u2581zmluvy": 1481,
  "\u2581ever": 1482,
  "pre": 1483,
  "ite": 1484,
  "\u2581field": 1485,
  "\u2581covered": 1486,
  "\u2581Bi": 1487,
  "\u2581os\u00f4b": 1488,
  "\u2581meet": 1489,
  "\u2581n\u00e1kladov": 1490,
  "\u2581key": 1491,
  "\u2581November": 1492,
  "\u2581men": 1493,
  "sky": 1494,
  "ton": 1495,
  "\u2581uv\u00e1dza": 1496,
  "30": 1497,
  "\u2581told": 1498,
  "\u2581\u00faplne": 1499,
  "\u2581t\u00fdkaj\u00faci": 1500,
  "sk": 1501,
  "\u2581September": 1502,
  "\u2581included": 1503,
  "\u2581growth": 1504,
  "\u2581men\u00ed": 1505,
  "*": 1506,
  "Q": 1507,
  "\u2581left": 1508,
  "\u2581l\u00e1tky": 1509,
  "\u2581rozvoj": 1510,
  "\u2581\u010eakujem": 1511,
  "\u2581Articles": 1512,
  "\u2581address": 1513,
  "\u2581potential": 1514,
  "\u2581import": 1515,
  "\u2581pr\u00e1ve": 1516,
  "\u2581making": 1517,
  "50": 1518,
  "\u2581granted": 1519,
  "\u2581state": 1520,
  "\u2581j\u00fala": 1521,
  "2,": 1522,
  "\u2581mimo": 1523,
  "\u2581low": 1524,
  "\u2581Ta": 1525,
  "si": 1526,
  "\u2581nov\u00fdch": 1527,
  "\u2581urobi\u0165": 1528,
  "\u2581mieste": 1529,
  "\u2581pr\u00edpadoch": 1530,
  "ang": 1531,
  "\u2581ochrany": 1532,
  "\u2581IV": 1533,
  "\u2581M\u00f4\u017ee": 1534,
  "\u2581janu\u00e1ra": 1535,
  "bu": 1536,
  "\u2581Ha": 1537,
  "\u2581stay": 1538,
  "\u2581April": 1539,
  "\u2581defined": 1540,
  "\u2581regards": 1541,
  "\u2581games": 1542,
  "ot": 1543,
  "\u2581nach\u00e1dza": 1544,
  "\u2581Then": 1545,
  "\u2581pr\u00e1v": 1546,
  "\u25811/": 1547,
  "\u2581came": 1548,
  "\u2581rod": 1549,
  "gt": 1550,
  "\u2581zvierat": 1551,
  "\u2581matter": 1552,
  "\u2581close": 1553,
  "\u2581vehicle": 1554,
  "val": 1555,
  "\u2581significant": 1556,
  "\u2581Or": 1557,
  "\u2581lie\u010dby": 1558,
  "\u2581serious": 1559,
  "\u2581objectives": 1560,
  "\u2581vhodn\u00e9": 1561,
  "\u2581ustanovenia": 1562,
  "\u2581jednej": 1563,
  "cia": 1564,
  "\u2581naozaj": 1565,
  "05": 1566,
  "\u2581robi\u0165": 1567,
  "\u2581reported": 1568,
  "\u2581few": 1569,
  "\u2581capital": 1570,
  "\u2581spr\u00e1va": 1571,
  "\u2581specified": 1572,
  "\u2581aspo\u0148": 1573,
  "\u2581niektor\u00e9": 1574,
  "\u2581solution": 1575,
  "\u2581large": 1576,
  "\u2581Teraz": 1577,
  "\u2581programmes": 1578,
  "03": 1579,
  "\u2581source": 1580,
  "cu": 1581,
  "\u2581experience": 1582,
  "\u2581natural": 1583,
  "04": 1584,
  "\u2581w": 1585,
  "\u2581bring": 1586,
  "\u2581four": 1587,
  "\u2581live": 1588,
  "\u2581submitted": 1589,
  "alebo": 1590,
  "\u2581Good": 1591,
  "\u2581internal": 1592,
  "\u2581Komisii": 1593,
  "\u2581Se": 1594,
  "\u2581received": 1595,
  "\u2581replaced": 1596,
  "\u2581projects": 1597,
  "\u2581existing": 1598,
  "\u2581zmysle": 1599,
  "18": 1600,
  "\u2581containing": 1601,
  "8": 1602,
  "\u2581issue": 1603,
  "\u2581content": 1604,
  "\u2581okt\u00f3bra": 1605,
  "ska": 1606,
  "\u2581rovnako": 1607,
  "\u2581women": 1608,
  "\u2581basic": 1609,
  "\u2581miest": 1610,
  "\u2581payment": 1611,
  "\u2581added": 1612,
  "\u2581responsible": 1613,
  "\u2581standard": 1614,
  "\u2581Di": 1615,
  "du": 1616,
  "cie": 1617,
  "\u2581pros\u00edm": 1618,
  "\u2581Pokia\u013e": 1619,
  "\u2581konania": 1620,
  "\u2581parties": 1621,
  "\u2581play": 1622,
  "\u2581m\u00e1me": 1623,
  "\u2581Of": 1624,
  "\u2581relating": 1625,
  "\u0148": 1626,
  "\u2581nebude": 1627,
  "\u2581mesiacov": 1628,
  "\u2581below": 1629,
  "\u2581Ro": 1630,
  "\u2581known": 1631,
  "\u2581Aj": 1632,
  "\u2581cost": 1633,
  "\u2581young": 1634,
  "ary": 1635,
  "\u2581Journal": 1636,
  "\u2581See": 1637,
  "kon": 1638,
  "\u2581treba": 1639,
  "\u2581animals": 1640,
  "\u2581dva": 1641,
  "\u2581provides": 1642,
  "\u2581d\u00f4vodu": 1643,
  "\u2581problem": 1644,
  "\u2581changes": 1645,
  "\u2581model": 1646,
  "The": 1647,
  "\u2581yet": 1648,
  "\u2581lebo": 1649,
  "\u2581\u010clensk\u00e9": 1650,
  "\u2581problems": 1651,
  "\u2581nariaden\u00ed": 1652,
  "\u2581dve": 1653,
  "\u2581Get": 1654,
  "\u2581n\u00e1\u0161": 1655,
  "\u2581Pred": 1656,
  "\u2581j": 1657,
  "\u2581d\u00f4sledku": 1658,
  "\u2581entry": 1659,
  "\u2581p\u00e1r": 1660,
  "\u2581pr\u00e1vo": 1661,
  "\u2581environment": 1662,
  "\u2581liek": 1663,
  "\u2581X": 1664,
  "\u2581syst\u00e9mov": 1665,
  "\u2581TV": 1666,
  "\u2581review": 1667,
  "\u2581Luc": 1668,
  "\u2581\u010dlensk\u00e9ho": 1669,
  "\u2581nepo": 1670,
  "11": 1671,
  "\u2581page": 1672,
  "\u2581minimum": 1673,
  "\u2581policies": 1674,
  "\u2581approach": 1675,
  "op": 1676,
  "\u017ei": 1677,
  "\u2581applied": 1678,
  "\u2581animal": 1679,
  "\u2581death": 1680,
  "\u2581activity": 1681,
  "\u2581later": 1682,
  "\u2581instruments": 1683,
  "\u2581post": 1684,
  "\u00e1r": 1685,
  "75": 1686,
  "\u2581code": 1687,
  "\u2581nevy": 1688,
  "\u2581Internet": 1689,
  "\u258129.": 1690,
  "\u2581imports": 1691,
  "ice": 1692,
  "\u2581competition": 1693,
  "\u2581pr\u00edslu\u0161n\u00fd": 1694,
  "tor": 1695,
  "\u2581took": 1696,
  "lin": 1697,
  "\u2581org\u00e1nov": 1698,
  "\u2581Sa": 1699,
  "\u013ea": 1700,
  "\u2581m\u00e1\u0161": 1701,
  "25": 1702,
  "\u2581pani": 1703,
  "\u2581France": 1704,
  "1/": 1705,
  "\u2581private": 1706,
  "hr": 1707,
  "\u2581v\u0161etci": 1708,
  "3,": 1709,
  "\u2581pomocou": 1710,
  "\u2581tomuto": 1711,
  "\u2581uveden\u00e9ho": 1712,
  "ga": 1713,
  "rad": 1714,
  "\u2581higher": 1715,
  "\u2581Ob": 1716,
  "bor": 1717,
  "\u2581(\"": 1718,
  "\u2581material": 1719,
  "5": 1720,
  "\u2581continue": 1721,
  "\u2581disease": 1722,
  "\u2581Some": 1723,
  "ja": 1724,
  "\u2581After": 1725,
  "\u00e1ciu": 1726,
  "land": 1727,
  "\u258180": 1728,
  "\u2581neza": 1729,
  "\u2581Home": 1730,
  "\u2581Le": 1731,
  "n\u00fdm": 1732,
  "sti": 1733,
  "ri": 1734,
  "\u2581la": 1735,
  "\u2581monitoring": 1736,
  "\u2581n\u00e1vrhu": 1737,
  "\u2581Bank": 1738,
  "\u2581export": 1739,
  "\u2581Mal": 1740,
  "\u2581vo\u010di": 1741,
  "\u2581values": 1742,
  "\u2581nem\u00e1": 1743,
  "\u2581EC": 1744,
  "\u2581r\u00f4znych": 1745,
  "term": 1746,
  "\u2581land": 1747,
  "+": 1748,
  "\u2581hard": 1749,
  "\u2581role": 1750,
  "\u2581\u0161t\u00e1tmi": 1751,
  "\u2581listed": 1752,
  "\u2581bode": 1753,
  "\u2581nothing": 1754,
  "\u2581meeting": 1755,
  "\u2581Me": 1756,
  "ek": 1757,
  "\u2581nej": 1758,
  "\u2581jedn\u00e9ho": 1759,
  "\u2581injection": 1760,
  "\u2581mno\u017estvo": 1761,
  "\u2581operation": 1762,
  "\u2581understand": 1763,
  "min": 1764,
  "1:": 1765,
  "\u2581seen": 1766,
  "\u2581among": 1767,
  "\u2581\u010d\u00edslo": 1768,
  "\u2581asi": 1769,
  "\u2581Official": 1770,
  "14": 1771,
  "\u2581Kto": 1772,
  "\u2581Man": 1773,
  "\u2581environmental": 1774,
  "\u2581Ra": 1775,
  "\u2581political": 1776,
  "ler": 1777,
  "\u2581Komisiu": 1778,
  "\u2581gas": 1779,
  "\u2581marca": 1780,
  "zi": 1781,
  "\u2581Kingdom": 1782,
  "17": 1783,
  "\u2581everything": 1784,
  "\u2581\u00fa\u010dinky": 1785,
  "\u2581Eur\u00f3pe": 1786,
  "\u2581coming": 1787,
  "\u2581ostatn\u00e9": 1788,
  "\u2581300": 1789,
  "\u2581pou\u017ei\u0165": 1790,
  "\u2581Agency": 1791,
  "\u2581measure": 1792,
  "\u2581jednu": 1793,
  "lu": 1794,
  "\u2581ask": 1795,
  "\u2581raz": 1796,
  "1,": 1797,
  "\u2581\u00e1no": 1798,
  "ov\u00e9ho": 1799,
  "\u258131.": 1800,
  "\u2581five": 1801,
  "15": 1802,
  "\u2581\u010dasto": 1803,
  "raz": 1804,
  "ens": 1805,
  "\u2581administration": 1806,
  "h\u013ead": 1807,
  "\u2581d\u00e1vky": 1808,
  "\u2581actions": 1809,
  "\u2581enough": 1810,
  "\u2581svete": 1811,
  "\u2581leave": 1812,
  "ali": 1813,
  "\u2581narodenia": 1814,
  "\u2581in\u00e9ho": 1815,
  "\u2581200": 1816,
  "\u2581v\u00fdbor": 1817,
  "EN": 1818,
  "ard": 1819,
  "\u2581miesta": 1820,
  "\u2581vzh\u013eadom": 1821,
  "\u2581recommended": 1822,
  "\u2581several": 1823,
  "\u2581V\u0161etky": 1824,
  "\u2581upon": 1825,
  "\u2581performance": 1826,
  "\u2581share": 1827,
  "\u2581d\u0148a": 1828,
  "\u2581NA": 1829,
  "\u2581P\u00e1n": 1830,
  "\u2581materials": 1831,
  "\u266a": 1832,
  "\u2581moj": 1833,
  "\u2581markets": 1834,
  "\u2581allow": 1835,
  "\u2581Jo": 1836,
  "\u2581gu": 1837,
  "ag": 1838,
  "\u2581m\u00e1ja": 1839,
  "\u2581intended": 1840,
  "\u2581needed": 1841,
  "\u2581weeks": 1842,
  "of": 1843,
  "0": 1844,
  "9": 1845,
  "\u2581Te": 1846,
  "\u2581ur\u010den\u00e9": 1847,
  "\u2581finan\u010dn\u00e9": 1848,
  "\u2581mind": 1849,
  "\u2581implementing": 1850,
  "\u2581\u010fal\u0161\u00edch": 1851,
  "\u2581roky": 1852,
  "\u2581won": 1853,
  "\u2581podnikov": 1854,
  "ling": 1855,
  "\u2581hospod\u00e1rskej": 1856,
  "\u258132": 1857,
  "\u2581domov": 1858,
  "\u2581stalo": 1859,
  "ko\u013evek": 1860,
  "ian": 1861,
  "\u2581cross": 1862,
  "\u2581February": 1863,
  "\u2581funds": 1864,
  "\u2581issues": 1865,
  "cov": 1866,
  "\u2581riziko": 1867,
  "\u2581predstavuje": 1868,
  "07": 1869,
  "\u2581limit": 1870,
  "\u2581supply": 1871,
  "\u2581keby": 1872,
  "\u2581Prep\u00e1": 1873,
  "\u2581\u017eiadosti": 1874,
  "\u2581proposed": 1875,
  "\u2581dobr\u00e9": 1876,
  "\u2581kontroly": 1877,
  "prav": 1878,
  "06": 1879,
  "\u2581administrative": 1880,
  "\u2581vody": 1881,
  "ovan\u00fd": 1882,
  "\u2581\u017eiados\u0165": 1883,
  "\u2581dop\u013a\u0148a": 1884,
  "\u2581celom": 1885,
  "\u2581partners": 1886,
  "\u2581offer": 1887,
  "\u2581probl\u00e9my": 1888,
  "\u2581travel": 1889,
  "\u2581contains": 1890,
  "\u2581prostriedkov": 1891,
  "\u2581nieko\u013eko": 1892,
  "\u2581h\u013eadiska": 1893,
  "\u2581big": 1894,
  "\u2581citizens": 1895,
  "\u2581seba": 1896,
  "\u2581vec": 1897,
  "\u2581novembra": 1898,
  "\u2581dosiahnu\u0165": 1899,
  "\u2581Economic": 1900,
  "\u2581cel\u00fd": 1901,
  "\u2581personal": 1902,
  "\u25812,": 1903,
  "\u2581annual": 1904,
  "\u2581Po\u010das": 1905,
  "\u2581Group": 1906,
  "\u2581bi": 1907,
  "\u2581minutes": 1908,
  "\u2581bar": 1909,
  "13": 1910,
  "\u2581regional": 1911,
  "\u2581agricultural": 1912,
  "ctually": 1913,
  "\u258120.": 1914,
  "\u2581various": 1915,
  "den": 1916,
  "\u2581pou\u017e\u00edva\u0165": 1917,
  "\u2581v\u00fdsledky": 1918,
  "tan": 1919,
  "skej": 1920,
  "\u2581General": 1921,
  "\u2581education": 1922,
  "\u2581n\u00e1jde": 1923,
  "\u2581sub": 1924,
  "\u2581Kde": 1925,
  "\u2581description": 1926,
  "\u2581\u0161t\u00e1tom": 1927,
  "\u2581however": 1928,
  "\u2581hodnota": 1929,
  "\u2581read": 1930,
  "\u2581krajin\u00e1ch": 1931,
  "\u2581head": 1932,
  "\u2581cover": 1933,
  "\u2581job": 1934,
  "\u2581r\u00e1d": 1935,
  "\u2581mil": 1936,
  "\u2581niekto": 1937,
  "\u2581septembra": 1938,
  "iz": 1939,
  "\u2581major": 1940,
  "\u2581Boh": 1941,
  "\u2581\u00farove\u0148": 1942,
  "\u2581building": 1943,
  "\u2581Ste": 1944,
  "\u0161ich": 1945,
  "\u2581na\u010falej": 1946,
  "\u2581others": 1947,
  "mail": 1948,
  "\u0161ie": 1949,
  "\u2581t\u00fa": 1950,
  "2/": 1951,
  "ost": 1952,
  "\u258136": 1953,
  "\u2581Bez": 1954,
  "\u0161\u00ed": 1955,
  "n\u00edk": 1956,
  "\u2581ciele": 1957,
  "\u2581nature": 1958,
  "\u2581approved": 1959,
  "\u2581Bruseli": 1960,
  "\u2581prostriedky": 1961,
  "eu": 1962,
  "\u258130.": 1963,
  "\u2581predt\u00fdm": 1964,
  "\u2581neho": 1965,
  "sk\u00fd": 1966,
  "\u2581prija\u0165": 1967,
  "\u2581pribli\u017ene": 1968,
  "\u2581range": 1969,
  "\u258135": 1970,
  "\u2581benefit": 1971,
  "\u2581Did": 1972,
  "\u2581direct": 1973,
  "\u258133": 1974,
  "\u2581society": 1975,
  "\u2581limited": 1976,
  "\u2581parts": 1977,
  "ish": 1978,
  "\u2581ot\u00e1zky": 1979,
  "80": 1980,
  "\u2581greater": 1981,
  "\u2581(4)": 1982,
  "\u2581analysis": 1983,
  "\u2581apr\u00edla": 1984,
  "\u2581inter": 1985,
  "stav": 1986,
  "\u2581druhej": 1987,
  "\u2581r\u00fdchlo": 1988,
  "\u2581exchange": 1989,
  "\u2581cie\u013eov": 1990,
  "\u2581probl\u00e9m": 1991,
  "\u2581stav": 1992,
  "\u2581t\u00fdka": 1993,
  "\u2581n\u00edm": 1994,
  "\u2581pom\u00f4c\u0165": 1995,
  "\u2581follows": 1996,
  "\u2581predaj": 1997,
  "\u2581s\u00fa\u010dasnosti": 1998,
  "\u2581approval": 1999,
  "\u2581kon": 2000,
  "\u2581bodies": 2001,
  "\u2581daily": 2002,
  "\u2581improve": 2003,
  "\u2581nem\u00f4\u017ee": 2004,
  "\u2581involved": 2005,
  "\u2581budete": 2006,
  "\u2581mesta": 2007,
  "\u2581pl\u00e1n": 2008,
  "bi": 2009,
  "\u2581child": 2010,
  "\u2581Uh": 2011,
  "\u2581chlap": 2012,
  "\u2581trhov": 2013,
  "\u2581sp\u00e4\u0165": 2014,
  "\u2581average": 2015,
  "\u2581groups": 2016,
  "\u2581pr\u00edslu\u0161n\u00fdch": 2017,
  "iek": 2018,
  "nej\u0161ie": 2019,
  "len": 2020,
  "\u2581n\u00e1": 2021,
  "\u2581acid": 2022,
  "\u2581Da": 2023,
  "\u2581sp\u00f4sob": 2024,
  "bal": 2025,
  "\u2581evidence": 2026,
  "4,": 2027,
  "\u2581Add": 2028,
  "\u2581associated": 2029,
  "\u2581Implementing": 2030,
  "\u2581longer": 2031,
  "ita": 2032,
  "bli": 2033,
  "\u2581Euro": 2034,
  "ren": 2035,
  "\u2581Hra": 2036,
  "IT": 2037,
  "\u2581hovor\u00ed": 2038,
  "\u2581sp": 2039,
  "01": 2040,
  "\u2581\u017eivota": 2041,
  "\u2581jedno": 2042,
  "\u2581act": 2043,
  "\u0161ej": 2044,
  "\u2581fine": 2045,
  "\u2581authorisation": 2046,
  "\u2581bezpe\u010dnos\u0165": 2047,
  "\u2581l\u00e1tok": 2048,
  "les": 2049,
  "tr": 2050,
  "\u2581Bratislava": 2051,
  "5/": 2052,
  "vin": 2053,
  "\u2581reduce": 2054,
  "priek": 2055,
  "\u2581fishing": 2056,
  "\u2581hope": 2057,
  "\u2581school": 2058,
  "\u2581v\u00fdrobku": 2059,
  "\u258145": 2060,
  "\u2581dopravy": 2061,
  "\u25812020": 2062,
  "\u2581tablet": 2063,
  "16": 2064,
  "ik": 2065,
  "\u2581looking": 2066,
  "\u2581vehicles": 2067,
  "\u2581origin": 2068,
  "\u2581contact": 2069,
  "\u2581EUROPEAN": 2070,
  "uck": 2071,
  "ting": 2072,
  "\u2581na\u0161e": 2073,
  "rod": 2074,
  "\u2581assistance": 2075,
  "\u2581pay": 2076,
  "tov": 2077,
  "\u2581organiz\u00e1cie": 2078,
  "\u2581viem": 2079,
  "\u2581pr\u00edli\u0161": 2080,
  "\u2581wanted": 2081,
  "\u2581tablets": 2082,
  "\u2581prv\u00fd": 2083,
  "\u2581civil": 2084,
  "\u2581accommodation": 2085,
  "\u2581employment": 2086,
  "\u2581tak\u00e9": 2087,
  "\u0161t": 2088,
  "\u2581Central": 2089,
  "\u2581held": 2090,
  "\u2581short": 2091,
  "sk\u00e9": 2092,
  "\u2581Ba": 2093,
  "\u2581Ri": 2094,
  "\u2581troch": 2095,
  "\u2581designed": 2096,
  "ng": 2097,
  "end": 2098,
  "\u2581tak\u017ee": 2099,
  "\u2581Potom": 2100,
  "\u2581documents": 2101,
  "\u2581strategy": 2102,
  "anie": 2103,
  "\u2581Part": 2104,
  "\u2581went": 2105,
  "\u2581trochu": 2106,
  "\u2581bad": 2107,
  "\u2581budeme": 2108,
  "\u2581roka": 2109,
  "\u2581zariaden\u00ed": 2110,
  "\u2581Authority": 2111,
  "\u2581International": 2112,
  "\u2581n\u00e1js\u0165": 2113,
  "\u2581pressure": 2114,
  "\u2581site": 2115,
  "\u2581hmotnosti": 2116,
  "\u2581porovnan\u00ed": 2117,
  "fer": 2118,
  "\u2581outside": 2119,
  "ge": 2120,
  "\u2581often": 2121,
  "byt": 2122,
  "\u2581operations": 2123,
  "\u258122.": 2124,
  "\u010dka": 2125,
  "\u2581min\u00fat": 2126,
  "\u2581Therefore": 2127,
  "\u2581\u010dlensk\u00fdmi": 2128,
  "\u2581500": 2129,
  "\u2581regarding": 2130,
  "\u2581S\u00fa": 2131,
  "\u2581uh": 2132,
  "\u2581\u00fa\u010dinnosti": 2133,
  "\u2581kvality": 2134,
  "\u2581Ar": 2135,
  "\u258117.": 2136,
  "\u2581rates": 2137,
  "\u00edk": 2138,
  "\u2581lead": 2139,
  "\u2581ur\u010dit\u00e9": 2140,
  "der": 2141,
  "\u2581friend": 2142,
  "\u2581zn\u00ed\u017eenie": 2143,
  "\u2581hod\u00edn": 2144,
  "90": 2145,
  "\u2581particularly": 2146,
  "X": 2147,
  "\u25810,": 2148,
  "gen": 2149,
  "\u2581transfer": 2150,
  "\u2581rada": 2151,
  "\u2581typu": 2152,
  "\u2581krvi": 2153,
  "\u2581riadenia": 2154,
  "\u00f3n": 2155,
  "\u2581across": 2156,
  "pi": 2157,
  "\u2581provision": 2158,
  "\u010falej": 2159,
  "\u2581says": 2160,
  "\u2581mohla": 2161,
  "\u2581fixed": 2162,
  "\u2581vz\u0165ahuje": 2163,
  "\u2581face": 2164,
  "\u2581principle": 2165,
  "\u2581wrong": 2166,
  "\u2581past": 2167,
  "\u258148": 2168,
  "\u2581zoznam": 2169,
  "\u2581rozvoja": 2170,
  "\u2581(1": 2171,
  "/2006": 2172,
  "\u2581fully": 2173,
  "\u2581organisations": 2174,
  "stvo": 2175,
  "\u2581tret\u00edch": 2176,
  "let": 2177,
  "t\u00e1": 2178,
  "ron": 2179,
  "\u2581document": 2180,
  "\u2581Car": 2181,
  "\u2581Pros\u00edm": 2182,
  "\u2581Chcem": 2183,
  "uys": 2184,
  "\u2581CO": 2185,
  "uk": 2186,
  "\u2581Viem": 2187,
  "\u2581treated": 2188,
  "\u2581v\u00fdnimkou": 2189,
  "\u2581reason": 2190,
  "\u258134": 2191,
  "\u2581located": 2192,
  "\u2581girl": 2193,
  "\u2581vedie\u0165": 2194,
  "\u2581<": 2195,
  "\u2581V\u00fdbor": 2196,
  "\u2581neboli": 2197,
  "ance": 2198,
  "\u2581words": 2199,
  "vid": 2200,
  "\u2581reduction": 2201,
  "\u2581hear": 2202,
  "\u2581investigation": 2203,
  "\u2581clinical": 2204,
  "\u2581produktov": 2205,
  "\u258121.": 2206,
  "\u2581crisis": 2207,
  "\u2581event": 2208,
  "\u2581producers": 2209,
  "\u2581spolupr\u00e1ce": 2210,
  "ap": 2211,
  "ster": 2212,
  "bl": 2213,
  "nes": 2214,
  "\u2581dead": 2215,
  "\u2581pr\u00e1vne": 2216,
  "\u2581det\u00ed": 2217,
  "\u2581pr\u00ed": 2218,
  "kr": 2219,
  "\u2581Book": 2220,
  "\u2581ostatn\u00fdch": 2221,
  "\u2581Because": 2222,
  "\u2581postupy": 2223,
  "\u2581John": 2224,
  "\u2581amending": 2225,
  "\u2581Here": 2226,
  "\u2581Whereas": 2227,
  "\u2581half": 2228,
  "\u2581En": 2229,
  "\u2581context": 2230,
  "\u2581dis": 2231,
  "\u2581[1]": 2232,
  "\u2581objective": 2233,
  "\u2581progress": 2234,
  "\u2581\u00b0": 2235,
  "\u2581network": 2236,
  "\u2581Done": 2237,
  "\u2581org\u00e1nu": 2238,
  "\u2581waste": 2239,
  "\u2581\u010dinnost\u00ed": 2240,
  "\u2581OK": 2241,
  "\u2581spr\u00e1vne": 2242,
  "\u2581published": 2243,
  "\u2581ka\u017ed\u00e9ho": 2244,
  "\u2581especially": 2245,
  "\u2581du": 2246,
  "\u2581assets": 2247,
  "\u2581TO": 2248,
  "\u2581week": 2249,
  "\u258170": 2250,
  "\u2581mother": 2251,
  "\u2581someone": 2252,
  "kol": 2253,
  "bo": 2254,
  "ven": 2255,
  "\u2581moje": 2256,
  "\u2581party": 2257,
  "\u2581Section": 2258,
  "\u00e1\u0161": 2259,
  "\u2581true": 2260,
  "\u2581obdob\u00ed": 2261,
  "zh\u013eadom": 2262,
  "\u2581makes": 2263,
  "\u2581prostredia": 2264,
  "\u2581response": 2265,
  "\u2581en": 2266,
  "\u2581nahr\u00e1dza": 2267,
  "ovala": 2268,
  "\u2581principles": 2269,
  "\u2581issued": 2270,
  "\u2581substance": 2271,
  "\u2581rozhodnut\u00ed": 2272,
  "\u25811).": 2273,
  "\u2581film": 2274,
  "\u2581skuto\u010dnosti": 2275,
  "\u2581al": 2276,
  "aj": 2277,
  "\u2581vidie\u0165": 2278,
  "\u2581Sp": 2279,
  "\u2581produkty": 2280,
  "\u2581Bar": 2281,
  "\u2581contract": 2282,
  "\u2581loss": 2283,
  "\u2581oblastiach": 2284,
  "\u2581DVD": 2285,
  "\u2581mo\u017enosti": 2286,
  "\u2581Zmluv": 2287,
  "\u2581marketing": 2288,
  "\u2581tovaru": 2289,
  "\u2581happened": 2290,
  "\u2581EUR\u00d3PSK": 2291,
  "ner": 2292,
  "go": 2293,
  "\u2581move": 2294,
  "\u2581substances": 2295,
  "\u2581try": 2296,
  "2008": 2297,
  "\u2581rokoch": 2298,
  "ium": 2299,
  "\u2581predov\u0161etk\u00fdm": 2300,
  "\u258119.": 2301,
  "\u2581programov": 2302,
  "\u2581Our": 2303,
  "\u2581va\u0161e": 2304,
  "tic": 2305,
  "\u2581pracovn\u00fdch": 2306,
  "\u2581normal": 2307,
  "\u2581ago": 2308,
  "\u2581father": 2309,
  "\u2581peniaze": 2310,
  "\u2581forme": 2311,
  "\u2581region": 2312,
  "\u2581vy\u017eaduje": 2313,
  "\u2581v\u00fdskum": 2314,
  "\u2581office": 2315,
  "\u2581Social": 2316,
  "\u2581jednotliv\u00fdch": 2317,
  "\u2581druhov": 2318,
  "\u2581nez": 2319,
  "\u2581events": 2320,
  "\u2581z\u00e1ujme": 2321,
  "ii": 2322,
  "\u2581smernici": 2323,
  "\u2581sugar": 2324,
  "\u2581poskytuje": 2325,
  "\u2581stanovuje": 2326,
  "\u2581paid": 2327,
  "\u2581Bude": 2328,
  "\u2581Zo": 2329,
  "\u2581organisation": 2330,
  "\u2581zabezpe\u010denie": 2331,
  "\u2581ur\u010dit\u00fdch": 2332,
  "\u2581celej": 2333,
  "08": 2334,
  "\u2581vestn\u00edku": 2335,
  "\u2581stock": 2336,
  "\u2581siete": 2337,
  "\u2581poskytn\u00fa\u0165": 2338,
  "\u2581book": 2339,
  "\u2581jedna": 2340,
  "\u2581Spojen\u00e9": 2341,
  "\u2581compliance": 2342,
  "\u2581soon": 2343,
  "ide": 2344,
  "\u2581nesmie": 2345,
  "\u25811999": 2346,
  "\u2581pr\u00e1cu": 2347,
  "\u2581term": 2348,
  "\u2581v\u00fdvoj": 2349,
  "\u2581v\u00fd\u0161ke": 2350,
  "\u2581Un": 2351,
  "ac": 2352,
  "\u2581dosta\u0165": 2353,
  "\u2581rizika": 2354,
  "\u2581subparagraph": 2355,
  "\u258118.": 2356,
  "ovan\u00ed": 2357,
  "\u2581nadob\u00fada": 2358,
  "ps": 2359,
  "\u2581Germany": 2360,
  "\u2581external": 2361,
  "\u2581\u010dinnos\u0165": 2362,
  "\u2581combination": 2363,
  "ful": 2364,
  "\u2581THI": 2365,
  "95": 2366,
  "\u2581modern": 2367,
  "\u2581mysl\u00edm": 2368,
  "\u258125.": 2369,
  "\u2581zmeni\u0165": 2370,
  "klad": 2371,
  "\u2581obligations": 2372,
  "\u2581contribution": 2373,
  "\u2581skin": 2374,
  "\")": 2375,
  "\u2581dokonca": 2376,
  "\u2581moja": 2377,
  "\u2581internet": 2378,
  "\u2581tak\u00e9to": 2379,
  "\u2581details": 2380,
  "\u2581consumption": 2381,
  "EL": 2382,
  "\u2581predpisy": 2383,
  "\u2581oil": 2384,
  "\u2581Rozhodnutie": 2385,
  "\u2581mili\u00f3nov": 2386,
  "\u2581economy": 2387,
  "\u2581v\u00fdroby": 2388,
  "\u2581stanovisko": 2389,
  "\u2581getting": 2390,
  "\u2581sea": 2391,
  "\u2581vy\u0161\u0161ie": 2392,
  "\u2581febru\u00e1ra": 2393,
  "\u2581neu": 2394,
  "\u258175": 2395,
  "\u2581smernica": 2396,
  "\u2581cause": 2397,
  "\u2581chcel": 2398,
  "\u2581sk\u00f4r": 2399,
  "\u2581z\u00edska\u0165": 2400,
  "\u2581check": 2401,
  "\u2581pi": 2402,
  "dar": 2403,
  "\u2581postup": 2404,
  "v\u00e1": 2405,
  "\u2581yourself": 2406,
  "\u2581\u010dlovek": 2407,
  "nik": 2408,
  "\u2581Tri": 2409,
  "\u2581150": 2410,
  "\u2581living": 2411,
  "\u2581son": 2412,
  "\u2581Ke\u010f\u017ee": 2413,
  "\u2581deal": 2414,
  "\u2581expected": 2415,
  "\u2581Ga": 2416,
  "\u2581\u00falohu": 2417,
  "\u2581property": 2418,
  "\u2581v\u00e1\u0161": 2419,
  "\u2581\u010dasu": 2420,
  "con": 2421,
  "\u2581ANNEX": 2422,
  "\u2581zv\u00fd\u0161enie": 2423,
  "\u25812001": 2424,
  "\u2581centre": 2425,
  "\u2581doh\u013eadu": 2426,
  "\u2581saw": 2427,
  "\u2581expenditure": 2428,
  "\u2581towards": 2429,
  "sh": 2430,
  "\u2581denne": 2431,
  "\u2581ve\u010der": 2432,
  "\u2581s\u00fa\u010das\u0165ou": 2433,
  "\u2581pon\u00faka": 2434,
  "\u2581essential": 2435,
  "\u2581bit": 2436,
  "\u2581Park": 2437,
  "ated": 2438,
  "\u2581skuto\u010dne": 2439,
  "\u2581apartment": 2440,
  "\u2581pracovn\u00e9": 2441,
  "\u2581vozidla": 2442,
  "\u2581lower": 2443,
  "mat": 2444,
  "\u2581ktor\u00fdmi": 2445,
  "\u2581processing": 2446,
  "\u2581cien": 2447,
  "\u2581boj": 2448,
  "\u2581\u0161t\u00e1te": 2449,
  "\u2581scope": 2450,
  "\u2581alone": 2451,
  "\u2581guarantee": 2452,
  "\u2581Christian": 2453,
  "\u2581overall": 2454,
  "\u2581duty": 2455,
  "nov": 2456,
  "\u2581funkcie": 2457,
  "\u2581Ok": 2458,
  "\u2581cm": 2459,
  "\u2581postupov": 2460,
  "\u2581HAS": 2461,
  "\u2581member": 2462,
  "\u2581VI": 2463,
  "use": 2464,
  "\u2581decisions": 2465,
  "\u2581ver": 2466,
  "\u2581svojim": 2467,
  "\u2581Christ": 2468,
  "\u2581forward": 2469,
  "\u2581#": 2470,
  "zer": 2471,
  "\u2581Chapter": 2472,
  "\u2581else": 2473,
  "ER": 2474,
  "\u010c": 2475,
  "\u2581method": 2476,
  "ung": 2477,
  "\u2581kill": 2478,
  "\u2581size": 2479,
  "\u2581star": 2480,
  "\u2581idea": 2481,
  "br": 2482,
  "\u2581Joint": 2483,
  "ica": 2484,
  "60": 2485,
  "\u2581compared": 2486,
  "\u00a9": 2487,
  "\u2581dane": 2488,
  "\u2581talking": 2489,
  "\u2581medicinal": 2490,
  "ujte": 2491,
  "\u2581knowledge": 2492,
  "\u2581mene": 2493,
  "\u2581mnou": 2494,
  "\u2581government": 2495,
  "\u2581PR\u00cdLOHA": 2496,
  "rie": 2497,
  "\u2581benefits": 2498,
  "\u2581global": 2499,
  "\u2581agreements": 2500,
  "ej\u0161ie": 2501,
  "\u2581scheme": 2502,
  "\u2581povinnosti": 2503,
  "\u2581providing": 2504,
  "\u00e1l": 2505,
  "\u2581publication": 2506,
  "\u2581table": 2507,
  "\u2581staff": 2508,
  "\u2581budem": 2509,
  "\u2581trying": 2510,
  "45": 2511,
  "\u2044": 2512,
  "02": 2513,
  "\u2581communication": 2514,
  "\u2581detailed": 2515,
  "\u2581eur\u00f3pskych": 2516,
  "\u2581prior": 2517,
  "40": 2518,
  "cen": 2519,
  "\u2581follow": 2520,
  "\u2581ta": 2521,
  "\u2581lie\u010dbu": 2522,
  "\u2581uplatnite\u013en\u00e9": 2523,
  "\u2581Neviem": 2524,
  "\u2581create": 2525,
  "Po": 2526,
  "\u2581auto": 2527,
  "\u2581placebo": 2528,
  "rt": 2529,
  "\u2581moment": 2530,
  "\u2581odkaz": 2531,
  "ct": 2532,
  "\u2581six": 2533,
  "\u2581thus": 2534,
  "\u2581in\u0161tit\u00facie": 2535,
  "\u2581syst\u00e9my": 2536,
  "\u2581podniky": 2537,
  "\u2581pravidiel": 2538,
  "ym": 2539,
  "\u2581SA": 2540,
  "\u2581dlho": 2541,
  "\u2581Fa": 2542,
  "ez": 2543,
  "\u2581sustainable": 2544,
  "\u2581dos\u0165": 2545,
  "\u2581meste": 2546,
  "\u2581\u010dlensk\u00fdm": 2547,
  "\u2581Y": 2548,
  "\u2581nevyhnutn\u00e9": 2549,
  "\u258123.": 2550,
  "\u00f4": 2551,
  "24": 2552,
  "\u2581r\u00f4zne": 2553,
  "\u2581kv\u00f4li": 2554,
  "\u2581pl": 2555,
  "\u258139": 2556,
  "\u2581pocit": 2557,
  "23": 2558,
  "\u2581run": 2559,
  "\u2581ADOPT": 2560,
  "\u2581rady": 2561,
  "\u2581pain": 2562,
  "\u2581pracovn\u00edkov": 2563,
  "6/": 2564,
  "\u2581p\u00f4vodu": 2565,
  "\u2581ro": 2566,
  "\u258138": 2567,
  "\u2581najmenej": 2568,
  "\u2581Ten": 2569,
  "\u2581in\u00fdmi": 2570,
  "\u2581v\u00fdznam": 2571,
  "\u2581presne": 2572,
  "\u2581authorised": 2573,
  "\u2581uvedenej": 2574,
  "red": 2575,
  "\u2581kedy": 2576,
  "\u2581400": 2577,
  "\u2581priebehu": 2578,
  "\u2581spolo\u010denstva": 2579,
  "\u2581Con": 2580,
  "6,": 2581,
  "\u2581Any": 2582,
  "\u2581v\u00e1\u017ene": 2583,
  "\u2581offers": 2584,
  "\u2581develop": 2585,
  "\u2581types": 2586,
  "navir": 2587,
  "\u2581mnoh\u00fdch": 2588,
  "\u2581prostredie": 2589,
  "\u2581banky": 2590,
  "\u2581die\u0165a": 2591,
  "\u2581reasons": 2592,
  "\u2581binding": 2593,
  "\u2581function": 2594,
  "\u2581baby": 2595,
  "\u2581celkov": 2596,
  "31": 2597,
  "35": 2598,
  "\u2581vies\u0165": 2599,
  "rs": 2600,
  "\u2581species": 2601,
  "v\u00fd": 2602,
  "\u00c1": 2603,
  "\u2581Information": 2604,
  "\u2581responsibility": 2605,
  "\u2581reports": 2606,
  "99": 2607,
  "spolo\u010dnej": 2608,
  "\u2581EN": 2609,
  "hl": 2610,
  "\u2581works": 2611,
  "\u2581require": 2612,
  "sku": 2613,
  "\u2581najviac": 2614,
  "\u2581determined": 2615,
  "\u258128.": 2616,
  "5,": 2617,
  "\u2581language": 2618,
  "\u2581ve\u013ek\u00e9": 2619,
  "\u2581Sam": 2620,
  "3/": 2621,
  "\u2581po\u013enohospod\u00e1rsk": 2622,
  "\u2581vtedy": 2623,
  "en\u00edm": 2624,
  "n\u00fdmi": 2625,
  "\u2581territory": 2626,
  "\u2581heard": 2627,
  "\u2581Kar": 2628,
  "\u2581St": 2629,
  "llo": 2630,
  "\u2581complete": 2631,
  "@": 2632,
  "\u2581remember": 2633,
  "ig": 2634,
  "\u2581r\u00e1mec": 2635,
  "\u2581nimi": 2636,
  "\u2581podobn\u00e9": 2637,
  "\u2581pen": 2638,
  "\u2581risks": 2639,
  "\u2581regulatory": 2640,
  "\u2581saying": 2641,
  "\u2581tej": 2642,
  "\u2581design": 2643,
  "\u2581z\u00e1rove\u0148": 2644,
  "\u2581IN": 2645,
  "\u2581double": 2646,
  "\u2581Common": 2647,
  "\u2581chcem": 2648,
  "napr": 2649,
  "\u2581prvom": 2650,
  "\u2581\u00daradn": 2651,
  "\u2581sex": 2652,
  "ong": 2653,
  "\u2581road": 2654,
  "\u2581fat": 2655,
  "\u2581return": 2656,
  "\u2581prevent": 2657,
  "\u2581str\u00e1n": 2658,
  "\u2581equal": 2659,
  "\u2581t\u00e1": 2660,
  "ru": 2661,
  "\u2581therapy": 2662,
  "\u258137": 2663,
  "\u2581National": 2664,
  "\u2581adopt": 2665,
  "\u00e1cii": 2666,
  "\u2581website": 2667,
  "kg": 2668,
  "\u2581injek\u010dn": 2669,
  "\u2581takisto": 2670,
  "27": 2671,
  "pro": 2672,
  "\u2581dovoz": 2673,
  "\u2581multi": 2674,
  "\u2581Slovak": 2675,
  "\u2581bu\u010f": 2676,
  "\u2581exposure": 2677,
  "\u2581PRIJAL": 2678,
  "k\u00e1": 2679,
  "\u2581UN": 2680,
  "\u2581veku": 2681,
  "\u2581zdroje": 2682,
  "port": 2683,
  "\u258126.": 2684,
  "\u2581zmien": 2685,
  "29": 2686,
  "hal": 2687,
  "\u2581video": 2688,
  "\u2581chcete": 2689,
  "\u25812017": 2690,
  "han": 2691,
  "\u2581pozri": 2692,
  "\u2581Paul": 2693,
  "\u2581town": 2694,
  "48": 2695,
  "del": 2696,
  "\u2581evaluation": 2697,
  "2004": 2698,
  "\u010di": 2699,
  "pri": 2700,
  "\u2581decided": 2701,
  "ala": 2702,
  "\u2581rast": 2703,
  "\u2581Hi": 2704,
  "\u2581August": 2705,
  "\u2581Ru": 2706,
  "io": 2707,
  "DE": 2708,
  "\u2581central": 2709,
  "\u2581turn": 2710,
  "\u2581interested": 2711,
  "OR": 2712,
  "\u2581practice": 2713,
  "\u2581noc": 2714,
  "\u2581podiel": 2715,
  "\u2581otec": 2716,
  "\u2581produced": 2717,
  "\u258124.": 2718,
  "\u2581Development": 2719,
  "form": 2720,
  "\u2581wish": 2721,
  "\u2581eur\u00f3pskej": 2722,
  "\u2581plant": 2723,
  "\u2581nov\u00fd": 2724,
  "\u2581Mali": 2725,
  "pr": 2726,
  "\u2581konkr\u00e9tne": 2727,
  "\u2581rovnak\u00e9": 2728,
  "\u2581Table": 2729,
  "\u2581inak": 2730,
  "\u2581regulation": 2731,
  "\u2581chce\u0161": 2732,
  "\u2581Act": 2733,
  "\u2581reduced": 2734,
  "\u2581via": 2735,
  "\u2581medical": 2736,
  "\u2581workers": 2737,
  "\u2581svet": 2738,
  "\u2581regions": 2739,
  "\u2581observed": 2740,
  "\u2581dom": 2741,
  "itu": 2742,
  "\u2581stanovi\u0165": 2743,
  "\u2581strong": 2744,
  "hu": 2745,
  "\u2581Peter": 2746,
  "\u2581priority": 2747,
  "\u2581Fund": 2748,
  "era": 2749,
  "\u2581status": 2750,
  "su": 2751,
  "\u2581sent": 2752,
  "\u2581nebol": 2753,
  "70": 2754,
  "\u2581customs": 2755,
  "\u2581relation": 2756,
  "\u2581shown": 2757,
  "\u2581insurance": 2758,
  "\u2581krit\u00e9ri\u00e1": 2759,
  "ski": 2760,
  "\u2581rest": 2761,
  "\u2581electronic": 2762,
  "\u2581Povedal": 2763,
  "slav": 2764,
  "\u2581Du": 2765,
  "\u2581emissions": 2766,
  "\u2581man\u017eel": 2767,
  "var": 2768,
  "\u2581El": 2769,
  "\u2581applications": 2770,
  "\u2581projektov": 2771,
  "\u2581[2]": 2772,
  "\u2581Czech": 2773,
  "\u2581ustanoven\u00ed": 2774,
  "\u2581s\u00favisiace": 2775,
  "\u2581ha": 2776,
  "\u2581zamestnancov": 2777,
  "\u2581protect": 2778,
  "-2": 2779,
  "/2005": 2780,
  "\u2581bed": 2781,
  "\u2581sale": 2782,
  "\u2581immediately": 2783,
  "\u2581chce": 2784,
  "\u2581indicated": 2785,
  "\u2581nepre": 2786,
  ".11.": 2787,
  "bil": 2788,
  "\u2581mne": 2789,
  "\u2581najlep\u0161ie": 2790,
  "\u2581Since": 2791,
  "\u2581achieve": 2792,
  "\u2581avoid": 2793,
  "\u2581insulin": 2794,
  "\u2581sir": 2795,
  "\u2581friends": 2796,
  "\u2581medicine": 2797,
  "\u2581India": 2798,
  "\u2581pane": 2799,
  "\u2581pravdu": 2800,
  "\u2581ve\u013ek\u00fd": 2801,
  "\u2581carry": 2802,
  "\u2581v\u00fdrobcov": 2803,
  "\u2581pr\u00edstupu": 2804,
  "\u2581funding": 2805,
  "\u2581From": 2806,
  "\u2581deje": 2807,
  "\u2581predseda": 2808,
  "\u2581positive": 2809,
  "\u2581kres\u0165an": 2810,
  "\u258184": 2811,
  "\u2581>": 2812,
  "\u2581financing": 2813,
  "\u2581asked": 2814,
  "\u2581San": 2815,
  "\u010faka": 2816,
  "26": 2817,
  "\u2581word": 2818,
  "\u2581TOTO": 2819,
  "\u2581ponuky": 2820,
  "\u2581obsah": 2821,
  "\u2581Apart": 2822,
  "-1": 2823,
  "IA": 2824,
  "rd": 2825,
  "\u2581hodnotenie": 2826,
  "46": 2827,
  "\u2581v\u00fdrobu": 2828,
  "\u2581vykon\u00e1va": 2829,
  "ana": 2830,
  "\u2581unit": 2831,
  "\u2581krajine": 2832,
  "\u258127.": 2833,
  "\u2581\u0161t\u00fadie": 2834,
  "\u2581odpor\u00fa\u010da": 2835,
  "\u2581units": 2836,
  "\u2581Ka": 2837,
  "\u010f": 2838,
  "47": 2839,
  "36": 2840,
  "\u2581sales": 2841,
  "\u2581ready": 2842,
  "\u2581zdroj": 2843,
  "\u2581v\u010faka": 2844,
  "\u2581\u017eivotn\u00e9ho": 2845,
  "\u2581identified": 2846,
  "\u2581s\u00fa\u0165a\u017ee": 2847,
  "\u2581park": 2848,
  "\u2581potrebuje": 2849,
  "\u0161li": 2850,
  "\u2581safe": 2851,
  "\u2581wait": 2852,
  "\u2581org\u00e1nom": 2853,
  "\u2581podpory": 2854,
  "\u2581official": 2855,
  "\u2581meaning": 2856,
  "\u2581technology": 2857,
  "gra": 2858,
  "\u2581s\u00e1m": 2859,
  "\u2581whose": 2860,
  "\u2581Star": 2861,
  "avir": 2862,
  "\u2581lieky": 2863,
  "\u00ed\u0161": 2864,
  "int": 2865,
  "\u2581pou\u017e\u00edvanie": 2866,
  "\u2581uveden\u00fd": 2867,
  "\u2581acts": 2868,
  "\u2581Ostatn\u00e9": 2869,
  "OV": 2870,
  "ous": 2871,
  "out": 2872,
  "\u2581polo\u017eky": 2873,
  "\u2581zatia\u013e": 2874,
  "\u2581properties": 2875,
  "ft": 2876,
  "\u2581webov": 2877,
  "\u258101": 2878,
  "Re": 2879,
  "\u2581questions": 2880,
  "day": 2881,
  "\u2581Gu": 2882,
  "tro": 2883,
  "\u2581prav": 2884,
  "\u2581syn": 2885,
  "\u2581operating": 2886,
  "\u2581elements": 2887,
  "he": 2888,
  "\u2581dvoj": 2889,
  "\u2581reporting": 2890,
  "\u010do": 2891,
  "\u2581cut": 2892,
  "ip": 2893,
  "\u2581Str": 2894,
  "\u2581early": 2895,
  "\u2581institution": 2896,
  "\u2581obtained": 2897,
  "\u2581arrangements": 2898,
  "\u2581USA": 2899,
  "\u2581nesk\u00f4r": 2900,
  "\u2581phone": 2901,
  "49": 2902,
  "\u2581developed": 2903,
  "\u2581min": 2904,
  "\u2581month": 2905,
  "\u010d\u00ed": 2906,
  "\u2581described": 2907,
  "\u2581hell": 2908,
  "\u2581Eur\u00f3py": 2909,
  "\u2581vozidiel": 2910,
  "\u2581vykon\u00e1vanie": 2911,
  "\u2581innovation": 2912,
  "\u2581laying": 2913,
  "\u2581D\u00e1tum": 2914,
  "\u2581brought": 2915,
  "\u2581Zmluvy": 2916,
  "\u2581niekedy": 2917,
  "\u2581methods": 2918,
  "\u2581stability": 2919,
  "\u2581nech": 2920,
  "\u258150%": 2921,
  "\u2581white": 2922,
  "28": 2923,
  "\u2581fruit": 2924,
  "\u2581infrastructure": 2925,
  "\u2581Have": 2926,
  "\u2581vie\u0161": 2927,
  "\u2581ist\u00fd": 2928,
  "\u2581hospod\u00e1rstva": 2929,
  "\u2581Roz": 2930,
  "\u2581labour": 2931,
  "hl\u00e1s": 2932,
  "\u010din": 2933,
  "\u2581Ins": 2934,
  "44": 2935,
  "\u2581da\u0165": 2936,
  "\u2581fire": 2937,
  "\u2581odsek": 2938,
  "\u2581Ex": 2939,
  "\u2581str\u00e1nky": 2940,
  "max": 2941,
  "\u2581rie\u0161enie": 2942,
  "\u2581dobr\u00fd": 2943,
  "\u2581IU": 2944,
  "\u2581hovori\u0165": 2945,
  "van": 2946,
  "\u2581Ben": 2947,
  "\u2581started": 2948,
  "\u2581commercial": 2949,
  "\u2581spolo\u010dnost\u00ed": 2950,
  "\u2581Men": 2951,
  "\u2581potrav\u00edn": 2952,
  "\u2581ob\u010danov": 2953,
  "\u2581pova\u017euje": 2954,
  "\u2581team": 2955,
  "\u2581strat\u00e9gie": 2956,
  "\u2581comes": 2957,
  "\u2581promote": 2958,
  "\u2581attention": 2959,
  "\u2581d\u0148om": 2960,
  "bud": 2961,
  "\u2581trans": 2962,
  "RR": 2963,
  "\u2581okolo": 2964,
  "\u2581operators": 2965,
  "\u2581establish": 2966,
  "\u2581\u0148om": 2967,
  "right": 2968,
  "ve\u013ea": 2969,
  "\u2581patient": 2970,
  "\u2581mal\u00e9": 2971,
  "lt": 2972,
  "\u2581consider": 2973,
  "\u2581verejnej": 2974,
  "\u2581zah\u0155\u0148a": 2975,
  "\u2581payments": 2976,
  "\u2581obchod": 2977,
  "\u2581tebou": 2978,
  "\u2581Protocol": 2979,
  "\u2581minim\u00e1lne": 2980,
  "tty": 2981,
  "\u2581V\u00e1\u0161": 2982,
  "\u00c9": 2983,
  "\u2581efficiency": 2984,
  "\u2581neviem": 2985,
  "\u2581visit": 2986,
  "\u2581\u017eiadny": 2987,
  "\u2581though": 2988,
  "\u2581previous": 2989,
  "ff": 2990,
  "21": 2991,
  "\u2581fungovan\u00ed": 2992,
  "\u2581exceeding": 2993,
  "\u2581n\u00e1stroje": 2994,
  "\u2581proces": 2995,
  "\u2581ka\u017edom": 2996,
  "\u0161iel": 2997,
  "\u2581Right": 2998,
  "\u2581lek\u00e1r": 2999,
  "tur": 3000,
  "\u2581milk": 3001,
  "\u2581n\u00e1strojov": 3002,
  "vel": 3003,
  "\u2581sebe": 3004,
  "\u2581space": 3005,
  "33": 3006,
  "\u2581rozdiel": 3007,
  "ley": 3008,
  "68": 3009,
  "In": 3010,
  "\u2581ba": 3011,
  "\u2581vytvori\u0165": 3012,
  "\u2581org\u00e1nmi": 3013,
  "\u2581\u03bc": 3014,
  "\u2581original": 3015,
  "\u2581reactions": 3016,
  "\u2581Bo\u017ee": 3017,
  "ble": 3018,
  "\u2581ka\u017edej": 3019,
  "\u2581comply": 3020,
  "\u2581nielen": 3021,
  "\u2581Che": 3022,
  "\u2581mentioned": 3023,
  "\u2581woman": 3024,
  "ki": 3025,
  "22": 3026,
  "ucking": 3027,
  "\u2581podniku": 3028,
  "\u2581sveta": 3029,
  "\u2581alfa": 3030,
  "\u2581druh\u00fd": 3031,
  "\u2581itself": 3032,
  "\u258165": 3033,
  "ari": 3034,
  "\u2581\u010dlenskom": 3035,
  "\u2581\u010d\u00edm": 3036,
  "\u2581dal": 3037,
  "\u2581rooms": 3038,
  "\u2581population": 3039,
  "\u258144": 3040,
  "vie": 3041,
  "\u2581nice": 3042,
  "sta": 3043,
  "\u2581storage": 3044,
  "\u258143": 3045,
  "\u2581Niektor": 3046,
  "ger": 3047,
  "\u2581spojen\u00e9": 3048,
  "\u2581sound": 3049,
  "\u2581Kon": 3050,
  "\u2581nejak\u00e9": 3051,
  "\u2581m\u00f4\u017eem": 3052,
  "\u2581volume": 3053,
  "OM": 3054,
  "\u2581importance": 3055,
  "\u258110%": 3056,
  "\u2581vek": 3057,
  "\u2581zdravie": 3058,
  "\u2581povolenia": 3059,
  "\u2581easy": 3060,
  "\u2581presented": 3061,
  "\u2581\u010dlenov": 3062,
  "ather": 3063,
  "lep": 3064,
  "\u2581fight": 3065,
  "ovan\u00e1": 3066,
  "\u2581Po\u010fme": 3067,
  "\u2581near": 3068,
  "dr": 3069,
  "\u2581professional": 3070,
  "hose": 3071,
  "\u2581behalf": 3072,
  "\u2581balance": 3073,
  "\u2581Ka\u017ed\u00fd": 3074,
  "Na": 3075,
  "\u2581vzdel\u00e1vania": 3076,
  "\u2581d\u00e1vka": 3077,
  "\u2581]": 3078,
  "\u2581mohlo": 3079,
  "\u2581cena": 3080,
  "8/": 3081,
  "\u2581remain": 3082,
  "vis": 3083,
  "ism": 3084,
  "sil": 3085,
  "\u2581agreed": 3086,
  "iv": 3087,
  "\u2581fish": 3088,
  "\u258187": 3089,
  "so": 3090,
  "\u2581amendments": 3091,
  "9/": 3092,
  ".12.": 3093,
  "\u2581zv\u00fd\u0161i\u0165": 3094,
  "\u2581odvetvia": 3095,
  "\u2581V\u00e1m": 3096,
  "\u2581allowed": 3097,
  "\u2581spr\u00e1ve": 3098,
  "\u2581duties": 3099,
  "\u2581bodu": 3100,
  "\u2581vz\u0165ahu": 3101,
  "\u2581po\u010dtu": 3102,
  "europa": 3103,
  "\u2581Bolo": 3104,
  "p\u00e4\u0165": 3105,
  "\u2581Real": 3106,
  "\u2581climate": 3107,
  "\u2581rastu": 3108,
  "\u2581consumers": 3109,
  "\u2581pan": 3110,
  "\u2581prijat\u00e9": 3111,
  "\u2581Convention": 3112,
  "\u2581vz": 3113,
  "danej": 3114,
  "\u2581verejn\u00fdch": 3115,
  "ors": 3116,
  "\u2581dosiahnutie": 3117,
  "ph": 3118,
  "\u2581bude\u0161": 3119,
  "\u2581cie\u013e": 3120,
  "\u2581interests": 3121,
  "\u2581along": 3122,
  "\u2581takes": 3123,
  "\u2581existuje": 3124,
  "\u2581vessels": 3125,
  "tion": 3126,
  "las": 3127,
  "55": 3128,
  "\u2581base": 3129,
  "\u2581affect": 3130,
  "\u2581earth": 3131,
  "ania": 3132,
  "\u2581duch": 3133,
  "\u2581adoption": 3134,
  "ov\u00fa": 3135,
  "ally": 3136,
  "\u2581concluded": 3137,
  "\u00edr": 3138,
  "und": 3139,
  "\u2581condition": 3140,
  "\u2581receive": 3141,
  "\u2581kontrolu": 3142,
  "\u2581map": 3143,
  "\u2581gave": 3144,
  "fa": 3145,
  "\u00e1ciou": 3146,
  "\u2581platnosti": 3147,
  "85": 3148,
  "\u2581uplat\u0148ovania": 3149,
  "\u2581currently": 3150,
  "\u2581v\u00f4bec": 3151,
  "dia": 3152,
  "\u2581themselves": 3153,
  "stup": 3154,
  "\u00e1t": 3155,
  "\u2581boy": 3156,
  "\u2581lost": 3157,
  "ING": 3158,
  "\u2581kam": 3159,
  "\u2581adverse": 3160,
  "\u2581proposals": 3161,
  "\u2581circumstances": 3162,
  "\u2581hair": 3163,
  "\u2581po\u017eiadaviek": 3164,
  "\u2581amounts": 3165,
  "\u2581top": 3166,
  "\u2581uplat\u0148ova\u0165": 3167,
  "\u2581vlastnosti": 3168,
  "\u2581ad": 3169,
  "\u258142": 3170,
  "mysl\u00ed\u0161": 3171,
  "\u2581instrument": 3172,
  "\u2581reakcie": 3173,
  "gu": 3174,
  "65": 3175,
  "\u2581va\u0161": 3176,
  "e\u013emi": 3177,
  "\u2581forms": 3178,
  "mp": 3179,
  "\u2581likely": 3180,
  "\u2581umo\u017e\u0148uje": 3181,
  "\u2581includes": 3182,
  "\u2581patr\u00ed": 3183,
  "\u2581consumer": 3184,
  "IN": 3185,
  "\u2581symptoms": 3186,
  "\u2581agent\u00fary": 3187,
  "\u2581tele": 3188,
  "\u2581etc": 3189,
  "\u2581self": 3190,
  "\u2581isn": 3191,
  "\u2581thank": 3192,
  "\u2581step": 3193,
  "\u2581(2": 3194,
  "\u2581history": 3195,
  "\u2581\u00fazem\u00ed": 3196,
  "ments": 3197,
  "39": 3198,
  "ovacie": 3199,
  "\u2581bud\u00facnosti": 3200,
  "\u2581nes": 3201,
  "ten": 3202,
  "\u2581lo": 3203,
  "\u2581nejak\u00fd": 3204,
  "our": 3205,
  "\u2581inform": 3206,
  "\u2581Euratom": 3207,
  "\u2581sufficient": 3208,
  "\u2581Financial": 3209,
  "\u2581French": 3210,
  "\u2581physical": 3211,
  "\u2581hlavn\u00e9": 3212,
  "CH": 3213,
  "\u2581More": 3214,
  "\u2581FOR": 3215,
  "ET": 3216,
  "\u2581emisi\u00ed": 3217,
  "\u2581Air": 3218,
  "\u2581contracts": 3219,
  "\u2581knew": 3220,
  "\u2581obchodu": 3221,
  "\u2581efforts": 3222,
  "\u2581parlament": 3223,
  "\u2581users": 3224,
  "\u2581package": 3225,
  "\u2581applicant": 3226,
  "\u2581According": 3227,
  "\u2581v\u0161etk\u00fdm": 3228,
  "\u2581establishment": 3229,
  "\u2581operational": 3230,
  "\u2581joint": 3231,
  "\u2581Take": 3232,
  "\u2581v\u00fdskumu": 3233,
  "\u2581hra": 3234,
  "\u2581undertakings": 3235,
  "\u2581undertaking": 3236,
  "\u2581ground": 3237,
  "\u2581accounts": 3238,
  "ris": 3239,
  "\u2581par": 3240,
  "\u2581jasn\u00e9": 3241,
  "\u2581rozpo\u010dtov\u00fd": 3242,
  "\u2581extra": 3243,
  "\u2581medicines": 3244,
  "\u2581Programme": 3245,
  "\u2581morning": 3246,
  "\u2581Aby": 3247,
  "\u2581nebolo": 3248,
  "\u2581\u00favahy": 3249,
  "\u2581Italy": 3250,
  "stant": 3251,
  "\u2581sectors": 3252,
  "\u2581front": 3253,
  "niu": 3254,
  "\u00fdchto": 3255,
  "\u2581beautiful": 3256,
  "\u2581nem\u00f4\u017eem": 3257,
  "\u2581uplat\u0148uje": 3258,
  "\u2581skuto\u010dnos\u0165": 3259,
  "\u2581hold": 3260,
  "en\u00fdch": 3261,
  "\u25814,": 3262,
  "\u2581spolo\u010dn\u00e9": 3263,
  "\u2581le": 3264,
  "\u2581mnoho": 3265,
  "cel": 3266,
  "wi": 3267,
  "\u2581search": 3268,
  "\u2581severe": 3269,
  "\u2581eur\u00f3pskeho": 3270,
  "\u2581COMMISSION": 3271,
  "\u2581Nikdy": 3272,
  "\u2581nebola": 3273,
  "ep": 3274,
  "\u2581ur\u010dite": 3275,
  "art": 3276,
  "\u2581sto": 3277,
  "\u2581popis": 3278,
  "\u2581yea": 3279,
  "ise": 3280,
  "\u2581[2],": 3281,
  "\u2581almost": 3282,
  "\u2581participation": 3283,
  "\u2581ak\u00e9": 3284,
  "ovan\u00fdch": 3285,
  "ick\u00e9": 3286,
  "\u2581\u017eivotn\u00e9": 3287,
  "including": 3288,
  "\u2581door": 3289,
  "\u2581V\u0161etko": 3290,
  "\u2581prv\u00e9ho": 3291,
  "\u2581reach": 3292,
  "\u2581clearly": 3293,
  "09": 3294,
  "\u2581hor": 3295,
  "\u2581construction": 3296,
  "ujem": 3297,
  "\u2581bio": 3298,
  "\u2581riadenie": 3299,
  "\u2581Mil": 3300,
  "\u2581von": 3301,
  "\u2581verejn\u00e9ho": 3302,
  "\u2581mu\u017e": 3303,
  "\u2581City": 3304,
  "\u2581typ": 3305,
  "\u2581First": 3306,
  "\u2581connection": 3307,
  "musie\u0165": 3308,
  "\u2581hodnotu": 3309,
  "\u2581tests": 3310,
  "\u2581developing": 3311,
  "\u2581inside": 3312,
  "\u2581foreign": 3313,
  "shit": 3314,
  "\u2581\u017eien": 3315,
  "\u2581\u017d": 3316,
  "\u2581s\u00fa\u0165a\u017e": 3317,
  "\u2581wa": 3318,
  "\u2581Check": 3319,
  "\u2581super": 3320,
  "\u2581Ireland": 3321,
  "7/": 3322,
  "\u2581achieved": 3323,
  "\u2581oblas\u0165": 3324,
  "\u2581Play": 3325,
  "\u2581hyper": 3326,
  "\u2581in\u00fd": 3327,
  "\u2581mo": 3328,
  "ding": 3329,
  "\u2581category": 3330,
  "\u2581podnik": 3331,
  "\u0160": 3332,
  "\u2581liekov": 3333,
  "\u2581slov\u00e1": 3334,
  "\u2581za\u010diatku": 3335,
  "\u2581High": 3336,
  "\u2581Total": 3337,
  "\u2581zlep\u0161enie": 3338,
  "\u2581rozpo\u010dtu": 3339,
  "\u2581ubytovanie": 3340,
  "38": 3341,
  "\u2581vn\u00fatro\u0161t\u00e1tnych": 3342,
  "\u2581rather": 3343,
  "vr\u00e1tane": 3344,
  "\u2581vykon\u00e1vacie": 3345,
  "ace": 3346,
  "\u2581dostupn\u00e9": 3347,
  "\u2581z\u00e1v\u00e4zn\u00e9": 3348,
  "\u2581contribute": 3349,
  "\u2581ensuring": 3350,
  "pol": 3351,
  "\u2581extent": 3352,
  "\u2581except": 3353,
  "\u2581vykon\u00e1va\u0165": 3354,
  "if": 3355,
  "\u258102": 3356,
  "net": 3357,
  "\u25812018": 3358,
  "\u2581Such": 3359,
  "mar": 3360,
  "\u2581Ju": 3361,
  "\u2581\u0161t\u00e1tnej": 3362,
  "ld": 3363,
  "\u2581wife": 3364,
  "\u2581[...]": 3365,
  "\u2581Board": 3366,
  "\u2581Inform\u00e1cie": 3367,
  "\u2581hoci": 3368,
  "\u2581osoba": 3369,
  "\u2581rodiny": 3370,
  "\u2581percent": 3371,
  "leg": 3372,
  "\u2581Cena": 3373,
  "iny": 3374,
  "\u2581Jack": 3375,
  "\u2581sk": 3376,
  "lo\u017e": 3377,
  "\u2581Su": 3378,
  "43": 3379,
  "we": 3380,
  "\u2581Z\u00e1": 3381,
  "\u2581telef\u00f3n": 3382,
  "\u2581Read": 3383,
  "\u2581Va\u0161": 3384,
  "?\"": 3385,
  "s\u0165": 3386,
  "\u2581recent": 3387,
  "res": 3388,
  "\u2581Functioning": 3389,
  "\u258141": 3390,
  "tol": 3391,
  "\u2581naposledy": 3392,
  "\u2581miere": 3393,
  "\u2581CYP": 3394,
  "\u2581Sme": 3395,
  "\u2581\u010c": 3396,
  "all": 3397,
  "\u2581spotrebite\u013eov": 3398,
  "body": 3399,
  "\u2581kid": 3400,
  "\u2581procesu": 3401,
  "\u2581His": 3402,
  "\u2581truth": 3403,
  "\u2581za\u010da\u0165": 3404,
  "\u2581speed": 3405,
  "\u2581bank": 3406,
  "\u2581pln": 3407,
  "\u2581manufacturer": 3408,
  "\u2581\u00fa\u010del": 3409,
  "\u2581prijala": 3410,
  "\u2581odo": 3411,
  "\u2581throughout": 3412,
  "\u2581welcome": 3413,
  "\u2581\u00fa\u010dinok": 3414,
  "56": 3415,
  "\u2581Li": 3416,
  "\u2581postupu": 3417,
  "\u2581industrial": 3418,
  "\u2581vlastn\u00e9": 3419,
  "\u25811:": 3420,
  "par": 3421,
  "\u2581osobitn\u00e9": 3422,
  "eniu": 3423,
  "\u2581Kr": 3424,
  "\u2581Sea": 3425,
  "\u258152": 3426,
  "\u2581maintenance": 3427,
  "ating": 3428,
  "\u258185": 3429,
  "pu": 3430,
  "sk\u00e9ho": 3431,
  "\u2581difficult": 3432,
  "\u2581d\u00e1": 3433,
  "\u2581World": 3434,
  "sk\u00fdch": 3435,
  "\u2581Q": 3436,
  "\u2581feed": 3437,
  "97": 3438,
  "\u2581jedn\u00fdm": 3439,
  "\u0161e": 3440,
  "\u2581billion": 3441,
  "\u2581pr": 3442,
  "\u2581Am": 3443,
  "ilo": 3444,
  "ml": 3445,
  "cy": 3446,
  "\u258155": 3447,
  "96": 3448,
  "\u2581opportunity": 3449,
  "\u2581Eur\u00f3pa": 3450,
  "\u2581eyes": 3451,
  "\u2581kateg\u00f3rie": 3452,
  "\u2581neo": 3453,
  "\u2581killed": 3454,
  "\u2581late": 3455,
  "\u2581paper": 3456,
  "\u2581implemented": 3457,
  "\u258149": 3458,
  "\u2581stanovuj\u00fa": 3459,
  "\u2581equivalent": 3460,
  "ect": 3461,
  "\u2581setting": 3462,
  "\u2581skupina": 3463,
  "\u2581unless": 3464,
  "\u2581English": 3465,
  "\u2581floor": 3466,
  "ich": 3467,
  "\u2581Per": 3468,
  "\u2581representative": 3469,
  "stva": 3470,
  "e\u0148": 3471,
  "\u2581items": 3472,
  "qui": 3473,
  "\u2581podporuje": 3474,
  "\u2581\u00farad": 3475,
  "\u2581in\u00fdm": 3476,
  "66": 3477,
  "\u2581partner": 3478,
  "\u2581target": 3479,
  "\u2581financovania": 3480,
  "\u2581possibility": 3481,
  "\u2581n\u00e1vrhy": 3482,
  "\u2581certificate": 3483,
  "\u2581ceste": 3484,
  "\u2581zadarmo": 3485,
  ":00": 3486,
  "\u2581war": 3487,
  "\u2581povolenie": 3488,
  "l\u00e1": 3489,
  "\u2581resolution": 3490,
  "EJ": 3491,
  "\u2581oh\u013eadu": 3492,
  "tie": 3493,
  "\u2581Special": 3494,
  "\u2581urobil": 3495,
  "\u2581prv\u00e9": 3496,
  "\u2581\u00fanii": 3497,
  "\u2581produkt": 3498,
  "\u2581nedo": 3499,
  "\u2581tak\u00fd": 3500,
  "\u2581jobs": 3501,
  "isti": 3502,
  "37": 3503,
  "kr\u00e1t": 3504,
  "\u2581Ni\u010d": 3505,
  "sia": 3506,
  "\u2581exercise": 3507,
  "\u2581entity": 3508,
  "\u2581podporova\u0165": 3509,
  "\u2581choice": 3510,
  "\u258120%": 3511,
  "\u2581stanoven\u00fdch": 3512,
  "kaz": 3513,
  "\u2581poly": 3514,
  "\u2581pozornos\u0165": 3515,
  "\u2581Lo": 3516,
  "\u2581distribution": 3517,
  "e\u010f": 3518,
  "fi": 3519,
  "ciu": 3520,
  "57": 3521,
  "59": 3522,
  "\u2581Ltd": 3523,
  "\u2581draft": 3524,
  "\u2581\u010eal\u0161ie": 3525,
  "\u2581Cha": 3526,
  "\u2581requirement": 3527,
  "\u2581KOMISIA": 3528,
  "\u2581mesto": 3529,
  "\u2581factors": 3530,
  "\u2581roztok": 3531,
  "\u2581die": 3532,
  "\u2581requested": 3533,
  "\u2581prepared": 3534,
  "................": 3535,
  "\u2581operator": 3536,
  "\u2581aim": 3537,
  "\u2581practices": 3538,
  "\u2581str\u00e1nku": 3539,
  "\u2581message": 3540,
  "\u2581zdravia": 3541,
  "\u2581uplat\u0148uj\u00fa": 3542,
  "dal": 3543,
  "sion": 3544,
  "\u2581domestic": 3545,
  "\u2581heading": 3546,
  "sen": 3547,
  "\u2581Naozaj": 3548,
  "\u2581Pr\u00e1v": 3549,
  "uj": 3550,
  "94": 3551,
  "\u2581hne\u010f": 3552,
  "\u258156": 3553,
  "\u2581motor": 3554,
  "ence": 3555,
  "\u2581ktorou": 3556,
  "\u2581parents": 3557,
  "\u2581spolupr\u00e1cu": 3558,
  "\u010dia": 3559,
  "\u2581Hu": 3560,
  "\u2581normy": 3561,
  "\u0161i": 3562,
  "nice": 3563,
  "\u2581li": 3564,
  "4/": 3565,
  "rav": 3566,
  "\u2581spolupr\u00e1ci": 3567,
  "\u2581znovu": 3568,
  "\u2581components": 3569,
  "\u2581z\u00e1kladn\u00fdch": 3570,
  "\u010d\u00edtajte": 3571,
  "\u2581napr": 3572,
  "\u2581vec\u00ed": 3573,
  "\u2581hlas": 3574,
  "\u2581boles\u0165": 3575,
  "ery": 3576,
  "\u2581iniciat\u00edvy": 3577,
  "\u2581prospech": 3578,
  "ru\u0161": 3579,
  "\u2581states": 3580,
  "da\u0165": 3581,
  "\u2581uplat\u0148ovanie": 3582,
  "hor": 3583,
  "\u2581IT": 3584,
  "\u0161la": 3585,
  "\u2581soci\u00e1lne": 3586,
  "\u2581telo": 3587,
  "\u2581failure": 3588,
  "\u2581audit": 3589,
  "\u2581entities": 3590,
  "\u2581drive": 3591,
  "\u2581Ch": 3592,
  "\u2581music": 3593,
  "\u2581\u0161tyri": 3594,
  "\u010dte": 3595,
  "\u2581Jasn": 3596,
  "\u2581separate": 3597,
  "\u2581speak": 3598,
  "\u2581enjoy": 3599,
  "z\u00e1": 3600,
  "cin": 3601,
  "\u2581Israel": 3602,
  "\u2581red": 3603,
  "\u2581pre\u010d": 3604,
  "\u2581matters": 3605,
  "\u2581konkurencie": 3606,
  "\u2581invest\u00edcie": 3607,
  "\u2581z\u00e1ujem": 3608,
  "e\u013e": 3609,
  "\u2581US": 3610,
  "\u2581writing": 3611,
  "\u2581fair": 3612,
  "88": 3613,
  "\u2581China": 3614,
  "\u2581temperature": 3615,
  "pon": 3616,
  "\u2581Her": 3617,
  "\u2581fall": 3618,
  "\u2581machines": 3619,
  "67": 3620,
  "7,": 3621,
  "\u2581projektu": 3622,
  "\u00f3": 3623,
  "\u2581lack": 3624,
  "\u2581rob\u00ed\u0161": 3625,
  "ino": 3626,
  "About": 3627,
  "\u010dn\u00e9": 3628,
  "ab": 3629,
  "\u2581v\u00fdkon": 3630,
  "\u2581z\u00e1kladn\u00e9ho": 3631,
  "\u2581everyone": 3632,
  "\u2581d\u00e1va": 3633,
  "\u2581court": 3634,
  "\u2581numbers": 3635,
  "slov": 3636,
  "\u258147": 3637,
  "\u2581System": 3638,
  "\u2581viacer\u00fdch": 3639,
  "\u2581d\u00f4vod": 3640,
  "gi": 3641,
  "vod": 3642,
  "\u2581nena": 3643,
  "9,": 3644,
  "ef": 3645,
  "\u2581Naj": 3646,
  "\u2581Like": 3647,
  "\u2581America": 3648,
  "rov": 3649,
  "\u2581s\u00fa\u010dasn": 3650,
  "illa": 3651,
  "\u2581republiky": 3652,
  "\u2581scientific": 3653,
  "\u2581House": 3654,
  "kor": 3655,
  "\u258146": 3656,
  "tal": 3657,
  "\u2581soci\u00e1lneho": 3658,
  "\u2581Wait": 3659,
  "\u2581d\u00f4vodov": 3660,
  "pen": 3661,
  "\u2581obsahom": 3662,
  "vu": 3663,
  "\u2581Date": 3664,
  "ib": 3665,
  "\u2581ak\u00e9ko\u013evek": 3666,
  "\u2581hlavy": 3667,
  "\u2581steel": 3668,
  "ind": 3669,
  "\u2581(5)": 3670,
  "\u2581Parties": 3671,
  "\u2581negative": 3672,
  "\u2581cel\u00e9": 3673,
  "ast": 3674,
  "\u2581St\u00e1le": 3675,
  "\u2581photo": 3676,
  "\u2581svetov": 3677,
  "not": 3678,
  "\u2581hodnotenia": 3679,
  "\u258154": 3680,
  "\u2581decide": 3681,
  "chod": 3682,
  "\u2581\u010fal\u0161\u00ed": 3683,
  "\u2581del": 3684,
  "\u2581v\u00fdber": 3685,
  "kre": 3686,
  "\u2581rob\u00ed": 3687,
  "MP": 3688,
  "\u2581calculated": 3689,
  "\u2581brother": 3690,
  "mon": 3691,
  "mor": 3692,
  "tes": 3693,
  "\u2581Mor": 3694,
  "\u2581\u017eeny": 3695,
  "\u2581obligation": 3696,
  "\u2581structure": 3697,
  "\u2581buy": 3698,
  "8,": 3699,
  "\u2581happy": 3700,
  "\u2581opportunities": 3701,
  "\u2581programy": 3702,
  "\u2581pr\u00edde": 3703,
  "cr": 3704,
  "\u2581zl\u00e9": 3705,
  "\u2581zn\u00ed\u017ei\u0165": 3706,
  "\u2581anyone": 3707,
  "nutie": 3708,
  "\u2581sources": 3709,
  "\u2581\u010dlen": 3710,
  "\u2581proceedings": 3711,
  "\u2581pou\u017e\u00edvate\u013eov": 3712,
  "32": 3713,
  "oz": 3714,
  "\u2581cells": 3715,
  "\u2581moc": 3716,
  "\u2581ozn\u00e1menia": 3717,
  "\u2581South": 3718,
  "ev": 3719,
  "\u2581trust": 3720,
  "64": 3721,
  "\u2581notice": 3722,
  "\u2581slovo": 3723,
  "\u2581wine": 3724,
  "\u2581debt": 3725,
  "\u2581fuel": 3726,
  "ch\u00e1dza": 3727,
  "\u2581otherwise": 3728,
  "\u2581ran": 3729,
  "\u2581German": 3730,
  "\u2581spr\u00e1v": 3731,
  "\u2581entire": 3732,
  "\u2581z\u00e1sady": 3733,
  "\u2581nor": 3734,
  "\u2581spolo\u010dn\u00e9ho": 3735,
  "based": 3736,
  "\u2581doplnen\u00e9": 3737,
  "\u2581focus": 3738,
  "tin": 3739,
  "ized": 3740,
  "\u2581wants": 3741,
  "\u2581ones": 3742,
  "\u2581con": 3743,
  "\u2581surface": 3744,
  "\u2581class": 3745,
  "\u2581Po\u010f": 3746,
  "\u2581zmenen\u00e9": 3747,
  "\u2581thinking": 3748,
  "\u2581calls": 3749,
  "\u2581rating": 3750,
  "\u258188": 3751,
  "her": 3752,
  "\u2581fun": 3753,
  "\u2581t\u00fdmito": 3754,
  "can": 3755,
  "\u2581pl\u00e1nu": 3756,
  "\u2581\u0165a\u017ek\u00e9": 3757,
  "\u2581platby": 3758,
  "ile": 3759,
  "\u2581requires": 3760,
  "\u2581Eur\u00f3pske": 3761,
  "ix": 3762,
  "\u2581\u00farovne": 3763,
  "\u2581agent": 3764,
  "\u2581projekt": 3765,
  "98": 3766,
  "AR": 3767,
  "\u2581pou\u017eit\u00edm": 3768,
  "\u2581letter": 3769,
  "\u00f4\u017e": 3770,
  "\u2581zariadenie": 3771,
  "ovo": 3772,
  "rob": 3773,
  "\u2581independent": 3774,
  "\u2581hands": 3775,
  "\u2581articles": 3776,
  "54": 3777,
  "\u2581Smernica": 3778,
  "v\u00e9": 3779,
  "\u2581Use": 3780,
  "\u2581vysoko": 3781,
  "\u2581250": 3782,
  "\u2581disorders": 3783,
  "\u2581followed": 3784,
  "\u2581Ide": 3785,
  "87": 3786,
  "\u2581pravdepodobne": 3787,
  "\u010dn\u00fd": 3788,
  "\u2581shows": 3789,
  "\u2581hore": 3790,
  "34": 3791,
  "\u2581registered": 3792,
  "\u2581poskytuj\u00fa": 3793,
  "\u2581z\u00e1kladn\u00e9": 3794,
  "\u2581administered": 3795,
  "uj\u00face": 3796,
  "\u2581met\u00f3dy": 3797,
  "\u2581ni\u017e\u0161ie": 3798,
  "\u2581characteristics": 3799,
  "\u2581situ\u00e1cie": 3800,
  "\u0161ia": 3801,
  "\u2581David": 3802,
  "89": 3803,
  "\u2581opatrenie": 3804,
  "\u2581sense": 3805,
  "\u2581mass": 3806,
  "41": 3807,
  "\u2581net": 3808,
  "\u2581d\u00e1m": 3809,
  "\u2581s\u00fad": 3810,
  "\u2581increasing": 3811,
  "\u2581box": 3812,
  "\u2581submit": 3813,
  "\u25812:": 3814,
  "AT": 3815,
  "\u2581mus\u00edm": 3816,
  "ID": 3817,
  "\u2581demand": 3818,
  "\u2581vozidl\u00e1": 3819,
  "\u2581receiving": 3820,
  "\u2581zvierat\u00e1": 3821,
  "\u2581100%": 3822,
  "\u2581pravda": 3823,
  "\u2581t\u00fd\u017ed\u0148ov": 3824,
  "\u2581ra": 3825,
  "\u2581vypl\u00fdva": 3826,
  "\u258162": 3827,
  "\u2581Security": 3828,
  "\u2581dohode": 3829,
  "\u2581considers": 3830,
  "\u010de": 3831,
  "\u2581obmedzenia": 3832,
  "\u2581obchodn\u00fdch": 3833,
  "\u2581predaja": 3834,
  "\u2581Search": 3835,
  "\u2581vykona\u0165": 3836,
  "\u2581vz\u0165ahuj\u00fa": 3837,
  "\u2581regular": 3838,
  "73": 3839,
  "\u25815%": 3840,
  "hy": 3841,
  "\u2581Contact": 3842,
  "\u258172": 3843,
  "\u2581paragraphs": 3844,
  "\u2581contain": 3845,
  "\u2581tretej": 3846,
  "\u2581meat": 3847,
  "\u2581Budem": 3848,
  "ning": 3849,
  "\u00e9mu": 3850,
  "\u2581hru": 3851,
  "\u2581Spojen\u00fd": 3852,
  "\u2581item": 3853,
  "IP": 3854,
  "\u2581ter": 3855,
  "\u2581movement": 3856,
  "\u2581probl\u00e9mov": 3857,
  "\u2581transactions": 3858,
  "\u2581pr\u00edpadne": 3859,
  "\u2581black": 3860,
  "\u2581categories": 3861,
  "\u2581hod": 3862,
  "kami": 3863,
  "\u2581prev\u00e1dzky": 3864,
  "0/": 3865,
  "\u2581initial": 3866,
  "0,": 3867,
  "\u2581Will": 3868,
  "\u2581schopnos\u0165": 3869,
  "\u2581mam": 3870,
  "\u2581brat": 3871,
  "\u2581plans": 3872,
  "42": 3873,
  "\u2581jednotky": 3874,
  "\u2581favour": 3875,
  "way": 3876,
  "\u2581monitor": 3877,
  "\u2581Code": 3878,
  "\u2581tried": 3879,
  "\u2581enable": 3880,
  "\u2581sektore": 3881,
  "\u2581pri\u0161iel": 3882,
  "\u2581n\u00e1v\u0161tev": 3883,
  "\u2581Communication": 3884,
  "border": 3885,
  "\u258161": 3886,
  "\u2581E\u0161te": 3887,
  "\u2581ability": 3888,
  "\u2581stage": 3889,
  "\u2581Boha": 3890,
  "\u2581banks": 3891,
  "\u2581limits": 3892,
  "\u2581pokra\u010dova\u0165": 3893,
  "\u2581resulting": 3894,
  "gar": 3895,
  "war": 3896,
  "side": 3897,
  "\u258151": 3898,
  "\u2581approximately": 3899,
  "off": 3900,
  "\u2581Ca": 3901,
  "\u2581V\u0161etci": 3902,
  "\u2581finan\u010dn\u00e9ho": 3903,
  "\u2581gone": 3904,
  "\u2581charge": 3905,
  "\u2581jasne": 3906,
  "orry": 3907,
  "\u2581ga": 3908,
  "ite\u013e": 3909,
  "sl\u00e1v": 3910,
  "\u2581notified": 3911,
  "\u2581M\u00f4": 3912,
  "\u258153": 3913,
  "\u2581collection": 3914,
  "\u2581Only": 3915,
  "\u2581mobility": 3916,
  "ov\u00fdm": 3917,
  "top": 3918,
  "wer": 3919,
  "\u2581Dur": 3920,
  "\u2581vn\u00fatro\u0161t\u00e1tne": 3921,
  "n\u00edci": 3922,
  "IC": 3923,
  "\u2581exceed": 3924,
  "\u2581board": 3925,
  "\u2581povedala": 3926,
  "\u2581expressed": 3927,
  "\u2581%": 3928,
  "\u2581odbornej": 3929,
  "\u2581pr\u00edpad": 3930,
  "\u2581p\u00e4\u0165": 3931,
  "lia": 3932,
  "\u2581da": 3933,
  "\u2581rozhodnut\u00edm": 3934,
  "\u2581probably": 3935,
  "sko": 3936,
  "te\u013e": 3937,
  "\u2581re\u0161trukturaliz": 3938,
  "\u2581r\u00e1no": 3939,
  "\u2581plus": 3940,
  "\u2581agree": 3941,
  "\u2581hot": 3942,
  "\u2581dotknut\u00e9": 3943,
  "\u2581rule": 3944,
  "\u2581series": 3945,
  "\u2581coordination": 3946,
  "skom": 3947,
  "pt": 3948,
  "\u2581pa": 3949,
  "\u2581myself": 3950,
  "\u2581\u013eudsk\u00fdch": 3951,
  "jazd": 3952,
  "\u2581HIV": 3953,
  "\u2581oblast\u00ed": 3954,
  "\u2581efficient": 3955,
  "\u2581infra\u0161trukt\u00fary": 3956,
  "\u2581s\u00favisiacich": 3957,
  "tre": 3958,
  "iete": 3959,
  "\u010da": 3960,
  "\u2581guidelines": 3961,
  "\u2581center": 3962,
  "\u2581Ani": 3963,
  "\u2581facilities": 3964,
  "\u2581finan\u010dnej": 3965,
  "\u2581pokoj": 3966,
  "lik": 3967,
  "\u2581grant": 3968,
  "\u2581answer": 3969,
  "\u2581notification": 3970,
  "\u2581exactly": 3971,
  "\u2581Health": 3972,
  "bra": 3973,
  "\u2581giving": 3974,
  "\u2581concerns": 3975,
  "\u2581income": 3976,
  "\u2581Croatia": 3977,
  "a\u010dn\u00e9": 3978,
  "quite": 3979,
  "\u2581integration": 3980,
  "\u2581eligible": 3981,
  "\u00f3r": 3982,
  "\u2581M\u00f4\u017eem": 3983,
  "\u2581tebe": 3984,
  "92": 3985,
  "pine": 3986,
  "\u2581Nech": 3987,
  "\u258106": 3988,
  "\u2581cell": 3989,
  "\u2581walk": 3990,
  "\u2581pr\u00edpadov": 3991,
  "\u2581tasks": 3992,
  "\u2581domu": 3993,
  "://": 3994,
  "\u2581\u00danii": 3995,
  "\u2581lives": 3996,
  "\u2581at\u010f": 3997,
  "\u2581color": 3998,
  "\u2581determine": 3999,
  "st\u00ed": 4000,
  "time": 4001,
  "\u00ednu": 4002,
  "\u2581osobn\u00fdch": 4003,
  "\u2581initiative": 4004,
  "\u2581Samozrejme": 4005,
  "\u2581created": 4006,
  "\u2581zodpovednos\u0165": 4007,
  "\u2581happen": 4008,
  "\u2581Hoci": 4009,
  "\u2581cestu": 4010,
  "\u2581technick\u00e9": 4011,
  "rovna": 4012,
  "\u2581!": 4013,
  "zem": 4014,
  "\u0161u": 4015,
  "\u2581send": 4016,
  "\u2581aspects": 4017,
  "cich": 4018,
  "\u258195": 4019,
  "-2-": 4020,
  "i\u010d": 4021,
  "\u2581pom\u00e1ha": 4022,
  "\u2581riadite\u013e": 4023,
  "\u2581Ah": 4024,
  "\u2581wood": 4025,
  "\u2581holding": 4026,
  "\u2581mar": 4027,
  "\u2581fees": 4028,
  "\u2581v\u00fddavkov": 4029,
  "\u2581oral": 4030,
  "ros": 4031,
  "58": 4032,
  "\u2581beginning": 4033,
  "ujeme": 4034,
  "\u2581tovar": 4035,
  "\u0148uje": 4036,
  "\u2581Komisiou": 4037,
  "dan\u00e9": 4038,
  "\u2581renal": 4039,
  "\u2581Stop": 4040,
  "\u2581detail": 4041,
  "\u2581Mi": 4042,
  "\u2581\u2265": 4043,
  "\u010dek": 4044,
  "hi": 4045,
  "\u2581republika": 4046,
  "\u2581bo": 4047,
  "\u2581comments": 4048,
  "\u2581\u010dom": 4049,
  "\u2581nemali": 4050,
  "78": 4051,
  "\u2581entirety": 4052,
  "\u2581news": 4053,
  "\u2581suitable": 4054,
  "\u2581nov\u00e9ho": 4055,
  "\u25812008.": 4056,
  "\u2581Win": 4057,
  "\u2581str": 4058,
  "\u2581Even": 4059,
  "\u2581eye": 4060,
  "\u2581Management": 4061,
  "\u2581v\u00fdsledkov": 4062,
  "\u2581pohreb": 4063,
  "\u2581prejudice": 4064,
  "\u2581ru": 4065,
  "pred": 4066,
  "2)": 4067,
  "\u2581financovanie": 4068,
  "76": 4069,
  "\u2581dovozn\u00e9": 4070,
  "\u2581materi\u00e1lov": 4071,
  "\u2581caused": 4072,
  "\u2581OSN": 4073,
  "\u2581VII": 4074,
  "\u2581cukru": 4075,
  "69": 4076,
  "\u2581p\u00f4sobnosti": 4077,
  "ship": 4078,
  "\u2581posledn\u00fdch": 4079,
  "79": 4080,
  "\u00e4": 4081,
  "\u2581Director": 4082,
  "\u2581zameran\u00e9": 4083,
  "ical": 4084,
  "\u2581hospod\u00e1rsky": 4085,
  "\u2581izby": 4086,
  "\u2581opening": 4087,
  "\u2581uveden\u00fdm": 4088,
  "\u2581dar": 4089,
  "\u2581tvoje": 4090,
  "\u2581guess": 4091,
  "tom": 4092,
  "\u2581mlad\u00fdch": 4093,
  "\u2581in\u0161tit\u00faci\u00ed": 4094,
  "\u2581krajinami": 4095,
  "\u2581z\u00e1veru": 4096,
  "\u2581REGULATION": 4097,
  "II": 4098,
  "\u2581n\u00e1stroj": 4099,
  "CE": 4100,
  "\u2581device": 4101,
  "\u2581pr\u00e1ci": 4102,
  "\u2581popular": 4103,
  "\u2581eat": 4104,
  "\u2581rad": 4105,
  "\u2581maintain": 4106,
  "book": 4107,
  "ys": 4108,
  "\u2581miery": 4109,
  "\u2581affected": 4110,
  "\u2581spirit": 4111,
  "\u2581behind": 4112,
  "\u2581pr\u00edjem": 4113,
  "\u2581verejn\u00e9": 4114,
  "adi": 4115,
  "\u2581pova\u017eova\u0165": 4116,
  "\u2581Greece": 4117,
  "-3": 4118,
  "\u2581Energy": 4119,
  "\u2581Poland": 4120,
  "\u2581option": 4121,
  "\u2581recommendations": 4122,
  "\u2581placed": 4123,
  "\u2581challenges": 4124,
  "\u2581legislative": 4125,
  "\u25811998": 4126,
  "\u2581objekt": 4127,
  "RO": 4128,
  "\u2581beyond": 4129,
  "\u2581glass": 4130,
  "\u2581t\u00fd\u017ede\u0148": 4131,
  "\u2581medium": 4132,
  "\u2581Food": 4133,
  "\u2581poskytova\u0165": 4134,
  "\u2581ustanovuj\u00fa": 4135,
  "\u2581\u0161t\u00fadi\u00e1ch": 4136,
  "k\u00fd": 4137,
  "\u2581fondu": 4138,
  "\u2581pr\u00edpravy": 4139,
  "sis": 4140,
  "Fi": 4141,
  "\u2581entered": 4142,
  "nych": 4143,
  "stin": 4144,
  "=": 4145,
  "\u2581Val": 4146,
  "\u2581trvalo": 4147,
  "\u2581dovozu": 4148,
  "\u2581facilitate": 4149,
  "\u2581Pan": 4150,
  "\u2581\u010dast\u00e9": 4151,
  "eb": 4152,
  "\u2581engine": 4153,
  "bit": 4154,
  "\u2581Pr\u00edloha": 4155,
  "\u2581Min": 4156,
  "\u2581corresponding": 4157,
  "\u2581People": 4158,
  "OS": 4159,
  "\u2581\u00falohy": 4160,
  "\u2581druh": 4161,
  "91": 4162,
  "ena": 4163,
  "\u2581laws": 4164,
  "\u2581zmenu": 4165,
  "\u2581tools": 4166,
  "\u2581Inter": 4167,
  "dra": 4168,
  "\u2581hit": 4169,
  "\u2581powers": 4170,
  "\u2581cenu": 4171,
  "\u2581komisia": 4172,
  "\u010d\u00edta": 4173,
  "\u2581learn": 4174,
  "\u2581regulations": 4175,
  "set": 4176,
  "US": 4177,
  "\u2581Kam": 4178,
  "\u2581zalo\u017een\u00ed": 4179,
  "\u2581podpora": 4180,
  "\u2581rie\u0161enia": 4181,
  "\u2581debate": 4182,
  "\u2581ways": 4183,
  "\u2581choose": 4184,
  "\u00c3": 4185,
  "\u25812007.": 4186,
  "\u2581vedie": 4187,
  "\u2581druhu": 4188,
  "2:": 4189,
  "\u2581Bal": 4190,
  "\u2581Free": 4191,
  "\u2581Every": 4192,
  "\u2581difference": 4193,
  "53": 4194,
  "\u2581starting": 4195,
  "\u2581nikto": 4196,
  "86": 4197,
  "\u2581odpove\u010f": 4198,
  "\u2581technologies": 4199,
  "\u2581save": 4200,
  "\u25812006.": 4201,
  "\u2581addressed": 4202,
  "\u2581cel\u00fa": 4203,
  "\u2581Opatrenia": 4204,
  "\u2581Pr\u00ed": 4205,
  "\u2581pr\u00e1vomoci": 4206,
  "\u2581strana": 4207,
  "\u2581Party": 4208,
  "\u2581projekty": 4209,
  "\u2581Paris": 4210,
  "dz": 4211,
  "\u2581nos": 4212,
  "\u2581120": 4213,
  "\u2581fast": 4214,
  "\u2581poplatky": 4215,
  "\u2581domnieva": 4216,
  "ick\u00fd": 4217,
  "\u2581t\u00fdkaj\u00fa": 4218,
  "\u2581m\u00f4\u017ee\u0161": 4219,
  "\u2581stand": 4220,
  "\u2581internetu": 4221,
  "\u2581Bohu": 4222,
  "\u2581Action": 4223,
  "rat": 4224,
  "\u258193": 4225,
  "\u2581statement": 4226,
  "\u2581kept": 4227,
  "\u2581Viac": 4228,
  "\u2581performed": 4229,
  "\u2581akt\u00edv": 4230,
  "\u2581York": 4231,
  "\u2581600": 4232,
  "unt": 4233,
  "\u2581vl\u00e1dy": 4234,
  "\u2581kor": 4235,
  "\u2581primary": 4236,
  "\u2581Nemecko": 4237,
  "\u2581PRE": 4238,
  "\u2581vykon\u00e1vania": 4239,
  "\u2581k\u00f3d": 4240,
  "\u2581konci": 4241,
  "\u2581ka\u017ed\u00fa": 4242,
  "\u2581funeral": 4243,
  "\u2581p\u00e1na": 4244,
  "\u25812006,": 4245,
  "\u2581pe\u010dene": 4246,
  "\u2581Mon": 4247,
  "\u2581Furthermore": 4248,
  "\u2581himself": 4249,
  "\u2581internetov": 4250,
  "\u2581perfect": 4251,
  "\u2581freedom": 4252,
  "ities": 4253,
  "\u2581\u00fasilie": 4254,
  "\u2581watch": 4255,
  "\u2581jednoducho": 4256,
  "\u2581adequate": 4257,
  "\u2581plants": 4258,
  "\u2581yes": 4259,
  "\u2581ob\u013e\u00faben": 4260,
  "\u2581celkom": 4261,
  "\u2581creation": 4262,
  "\u2581kvalitu": 4263,
  "rak": 4264,
  "\u2581vplyvu": 4265,
  "\u2581Fe": 4266,
  "IS": 4267,
  "\u2581cent": 4268,
  "\u2581couple": 4269,
  "ck\u00e9": 4270,
  "\u2581n\u00e1zov": 4271,
  "\u2581\u017e": 4272,
  "\u2581chance": 4273,
  "\u2581Follow": 4274,
  "\u2581predstavuj\u00fa": 4275,
  "\u2581Tell": 4276,
  "\u2581recovery": 4277,
  "\u2581SK": 4278,
  "az": 4279,
  "\u2581availability": 4280,
  "\u2581\u00faverov": 4281,
  "\u2581card": 4282,
  "\u2581host": 4283,
  "\u2581ist\u00e9": 4284,
  "\u2581Super": 4285,
  "\u2581hospod\u00e1rskeho": 4286,
  "\u00e1lny": 4287,
  "ker": 4288,
  "\u2581vlastne": 4289,
  "from": 4290,
  "\u2581written": 4291,
  "\u2581T\u00fdm": 4292,
  "\u2581\u0148ou": 4293,
  "\u2581negotiations": 4294,
  "\u2581VIII": 4295,
  "\u2581Na\u0161": 4296,
  "\u2581nemaj\u00fa": 4297,
  "\u2581Report": 4298,
  "IE": 4299,
  "\u2581sebou": 4300,
  "\u2581$": 4301,
  "\u00edme": 4302,
  "\u2581investments": 4303,
  "\u2581Dnes": 4304,
  "\u2581applies": 4305,
  "\u2581directive": 4306,
  "ham": 4307,
  "\u25812009.": 4308,
  "\u2581diev\u010da": 4309,
  "\u2581polit\u00edk": 4310,
  "vir": 4311,
  "\u2581n\u00e1zor": 4312,
  "\u2581pal": 4313,
  "\u2581ISO": 4314,
  "\u2581vzorky": 4315,
  "\u2581Hol": 4316,
  "HO": 4317,
  "\u2581Centre": 4318,
  "\u2581implement": 4319,
  "\u2581Har": 4320,
  "ovan\u00edm": 4321,
  "\u2581skup\u00edn": 4322,
  "\u2581predpokladu": 4323,
  "\u2581smerom": 4324,
  "\u2581Sta": 4325,
  "\u2581Keep": 4326,
  "\u2581technol\u00f3gi\u00ed": 4327,
  "bar": 4328,
  "lor": 4329,
  "\u2581IP": 4330,
  "77": 4331,
  "\u2581simple": 4332,
  "zo": 4333,
  "PA": 4334,
  "\u2581postupom": 4335,
  "\u2581Dan": 4336,
  "kov\u00e9": 4337,
  "\u2581dialogue": 4338,
  "\u2581d\u00e1vku": 4339,
  "\u2581rozsah": 4340,
  "\u25811000": 4341,
  "\u2581ot\u00e1zku": 4342,
  "\u2581While": 4343,
  "\u2581budov": 4344,
  "\u2581Justice": 4345,
  "\u2581draw": 4346,
  "\u2581Services": 4347,
  "\u2581database": 4348,
  "\u2581pou\u017eitia": 4349,
  "kra": 4350,
  "\u2581built": 4351,
  "\u2581user": 4352,
  "\u2581integrated": 4353,
  "\u2581videl": 4354,
  "\u2581dni": 4355,
  "\u2581relationship": 4356,
  "\u2581peace": 4357,
  "\u2581\u010d\u00edsla": 4358,
  "\u2581augusta": 4359,
  "\u2581rade": 4360,
  "\u2581Ak\u00e9": 4361,
  "\u2581police": 4362,
  "\u2581\u017eena": 4363,
  "\u2581notes": 4364,
  "\u2581adjustment": 4365,
  "\u2581ship": 4366,
  "\u2581stated": 4367,
  "ani": 4368,
  "\u2581pou\u017e\u00edvaj\u00fa": 4369,
  "kal": 4370,
  "\u25812007,": 4371,
  "\u2581electricity": 4372,
  "\u2581vyzer\u00e1": 4373,
  "\u2581moji": 4374,
  "\u2581\u00fapravy": 4375,
  "\u00e1tor": 4376,
  "\u2581informed": 4377,
  "\u2581zoznamu": 4378,
  "\u2581http": 4379,
  "\u2581Tam": 4380,
  "\u2581advice": 4381,
  "\u2581Spain": 4382,
  "\u2581build": 4383,
  "\u2581register": 4384,
  "\u2581NARIADENIE": 4385,
  "\u2581quantities": 4386,
  "\u2581Moreover": 4387,
  "\u2581registration": 4388,
  "\u2581obli\u010diek": 4389,
  "\u2581akej": 4390,
  "\u258157": 4391,
  "\u2581v\u00fdvoja": 4392,
  "\u2581situ\u00e1ciu": 4393,
  "\u2581touto": 4394,
  "\u25812010.": 4395,
  "\u2581usually": 4396,
  "\u25812009,": 4397,
  "\u2581cultural": 4398,
  "\u2581st": 4399,
  "\u2581n\u00e1rodn\u00fdch": 4400,
  "\u2581oh\u013eadom": 4401,
  "tia": 4402,
  "\u2581Rade": 4403,
  "\u2581dostal": 4404,
  "\u2581manner": 4405,
  "\u2581sk\u00fasenosti": 4406,
  "\u258158": 4407,
  "\u2581zemi": 4408,
  "\u2581pr\u00e1ca": 4409,
  ".7.": 4410,
  "\u2581r\u00e1mca": 4411,
  "\u2581\u00fania": 4412,
  "\u2581pokrok": 4413,
  "burg": 4414,
  "\u2581Human": 4415,
  "84": 4416,
  "ovom": 4417,
  "\u2581cha": 4418,
  "\u2581niekoho": 4419,
  "\u2581tablety": 4420,
  "\u2581liekovk": 4421,
  "\u2581les": 4422,
  "\u2581consultation": 4423,
  "\u2581d\u00e1t": 4424,
  "\u2581cest": 4425,
  "\u2581duration": 4426,
  "\u2581eur\u00f3pske": 4427,
  "\u2581note": 4428,
  "\u2581druhy": 4429,
  "\u2581listen": 4430,
  "\u2581Great": 4431,
  "\u2581cesty": 4432,
  "AN": 4433,
  "\u2581pol": 4434,
  "\u2581Nem\u00f4\u017eem": 4435,
  "\u2581objem": 4436,
  "\u2581Tim": 4437,
  "\u2581break": 4438,
  "\u2581mu\u017eov": 4439,
  "\u2581burial": 4440,
  "\u2581testing": 4441,
  "\u2581drink": 4442,
  "\u00e1va": 4443,
  "\u2581declaration": 4444,
  "\u2581location": 4445,
  "stra": 4446,
  "\u2581Tom": 4447,
  "\u2581centra": 4448,
  "\u2581ustanovuje": 4449,
  "SA": 4450,
  "\u2581dostupnos\u0165": 4451,
  "\u2581Policy": 4452,
  "\u2581politiku": 4453,
  "\u2581partnerov": 4454,
  "\u2581haven": 4455,
  "\u2581kapit\u00e1lu": 4456,
  "\u2581(3": 4457,
  "fe": 4458,
  "\u25812019": 4459,
  "rok": 4460,
  "\u2581Number": 4461,
  "\u2581transmission": 4462,
  "\u2581hlavne": 4463,
  "\u2581customers": 4464,
  "\u2581Chinese": 4465,
  "urva": 4466,
  "\u2581zlep\u0161i\u0165": 4467,
  "\u2581sleep": 4468,
  "\u2581majority": 4469,
  "\u2581z\u00e1kon": 4470,
  "\u2581zamestnanosti": 4471,
  "sp": 4472,
  "\u2581z\u00e1vislosti": 4473,
  "\u2581border": 4474,
  "\u2581hospod\u00e1rsku": 4475,
  "\u258164": 4476,
  "\u2581article": 4477,
  "[": 4478,
  "\u2581cash": 4479,
  "\u2581latest": 4480,
  "\u2581dan\u00e9": 4481,
  "\u2581Po\u010dkaj": 4482,
  "\u2581DPH": 4483,
  "\u2581vytvorenie": 4484,
  "\u2581(-": 4485,
  "ama": 4486,
  "\u2581Idem": 4487,
  "\u2581looks": 4488,
  "\u2581factor": 4489,
  "\u2581stane": 4490,
  "\u2581steps": 4491,
  "\u2581solutions": 4492,
  "\u2581conformity": 4493,
  "CO": 4494,
  "pp": 4495,
  "\u2581actual": 4496,
  "\u2581vlastn": 4497,
  "RE": 4498,
  "\u2581accepted": 4499,
  "\u2581wide": 4500,
  "vit": 4501,
  "\u2581controls": 4502,
  "\u2581riz\u00edk": 4503,
  "\u2581airport": 4504,
  "\u2581v\u00fdrobok": 4505,
  "\u2581prejav": 4506,
  "\u2581poskytovanie": 4507,
  "\u2581exception": 4508,
  "\u0441": 4509,
  "\u2581Pen": 4510,
  "\u2581odpor\u00fa\u010dania": 4511,
  "\u2581port": 4512,
  "\u2581politika": 4513,
  "\u2581sta": 4514,
  "\u2581p\u00e1\u010di": 4515,
  "\u2581tender": 4516,
  "\u2581akcie": 4517,
  "\u2581\u00fa\u010dinn\u00e9": 4518,
  "\u2581occur": 4519,
  "\u258163": 4520,
  "\u2581des": 4521,
  "\u258192": 4522,
  "\u2581initiatives": 4523,
  "\u2581Commissioner": 4524,
  "\u2581zn\u00e1me": 4525,
  "ata": 4526,
  "SE": 4527,
  "\u2581preparation": 4528,
  "\u2581prvej": 4529,
  "\u00e1k": 4530,
  "\u2581Lisbon": 4531,
  "ians": 4532,
  "i\u0161": 4533,
  "\u2581devices": 4534,
  "\u2581\u00fa\u010det": 4535,
  "\u2581doses": 4536,
  "\u2581schemes": 4537,
  "\u2581medzin\u00e1rodn\u00fdch": 4538,
  "\u2581Po\u010det": 4539,
  "\u2581Ti": 4540,
  "ub": 4541,
  "\u2581rizik\u00e1": 4542,
  "\u2581identification": 4543,
  "\u2581\u013eudsk": 4544,
  "tvor": 4545,
  "\u2581fundamental": 4546,
  "\u0165a\u017e": 4547,
  "plat": 4548,
  "\u2581Pra": 4549,
  "\u2581Minister": 4550,
  "ised": 4551,
  "\u2581vote": 4552,
  "\u2581para": 4553,
  "\u2581taxes": 4554,
  "\u2581tvoja": 4555,
  "\u2581konanie": 4556,
  "\u25812005.": 4557,
  "kar": 4558,
  "\u2581komisie": 4559,
  "\u2581[3]": 4560,
  "\u2581patria": 4561,
  "PL": 4562,
  "\u00e9r": 4563,
  "\u2581networks": 4564,
  "\u2581Eur\u00f3pskym": 4565,
  "enci": 4566,
  "\u2581conduct": 4567,
  "\u2581protected": 4568,
  "\u2581z\u00e1klad": 4569,
  "\u2581originating": 4570,
  "oc": 4571,
  "\u2581applying": 4572,
  "\u25811997": 4573,
  "\u2581skills": 4574,
  "\u2581t\u00ed": 4575,
  "\u258159": 4576,
  "\u2581\u00d7": 4577,
  "\u2581\u2264": 4578,
  "\u2581hladiny": 4579,
  "\u25812008,": 4580,
  "\u2581miestne": 4581,
  "\u2581Mont": 4582,
  "lf": 4583,
  "\u2581restructuring": 4584,
  "\u2581kontrol": 4585,
  "rom": 4586,
  "\u2581definition": 4587,
  "\u2581became": 4588,
  "\u2581l\u00e1tka": 4589,
  "\u2581hour": 4590,
  "\u2581fresh": 4591,
  "\u2581\u013eud": 4592,
  "\u2581ratio": 4593,
  "\u2581cel\u00e9ho": 4594,
  "\u2581complex": 4595,
  "nd": 4596,
  "/2004": 4597,
  "\u2581meetings": 4598,
  "\u2581ID": 4599,
  "\u2581Market": 4600,
  "gy": 4601,
  "\u258174": 4602,
  "\u2581completed": 4603,
  "ever": 4604,
  "wa": 4605,
  "\u2581goes": 4606,
  "\u2581\u010dloveka": 4607,
  "CAS": 4608,
  "\u2581lek\u00e1ra": 4609,
  "\u2581Bu": 4610,
  "\u2581concern": 4611,
  "\u2581significantly": 4612,
  "\u2581povinnos\u0165": 4613,
  "2009": 4614,
  "\u2581Gal": 4615,
  "\u2581waters": 4616,
  "LE": 4617,
  "\u2581Os": 4618,
  "\u2581producer": 4619,
  "\u2581statistics": 4620,
  "\u2581samozrejme": 4621,
  "\u2581plynov": 4622,
  "\u2581Martin": 4623,
  "\u2581vyu\u017ei\u0165": 4624,
  "\u2581Show": 4625,
  "\u258166": 4626,
  "\u2581smrti": 4627,
  "\u258186": 4628,
  "\u2581stave": 4629,
  "\u2581invest\u00edci\u00ed": 4630,
  "\u2581okam\u017eite": 4631,
  "kov\u00e1": 4632,
  "\u2581Rod": 4633,
  "\u2581knows": 4634,
  "\u2581zelen": 4635,
  "\u2581phase": 4636,
  "eme": 4637,
  "\u2581reached": 4638,
  "\u2581sektora": 4639,
  "\u2581supported": 4640,
  "\u2581hlavn\u00fdch": 4641,
  "\u2581dokument": 4642,
  "\u2581Ke": 4643,
  "me\u0148": 4644,
  "hod": 4645,
  "\u2581Office": 4646,
  "ries": 4647,
  "ester": 4648,
  "ight": 4649,
  "\u2581CN": 4650,
  "\u2581novej": 4651,
  "\u2581Two": 4652,
  "\u2581uses": 4653,
  "\u2581v\u00fdrazne": 4654,
  "\u2581concentration": 4655,
  "king": 4656,
  "ene": 4657,
  "\u2581record": 4658,
  "\u2581Mrs": 4659,
  "\u2581\u00fa\u017eas": 4660,
  "\u2581length": 4661,
  "\u2581preklad": 4662,
  "72": 4663,
  "Article": 4664,
  "\u258167": 4665,
  "\u2581tlak": 4666,
  "\u2581subjektov": 4667,
  "\u2581liver": 4668,
  "\u2581Alebo": 4669,
  "\u2581fakt": 4670,
  "\u2581ona": 4671,
  "tis": 4672,
  "\u2581unique": 4673,
  "\u2581sign": 4674,
  "\u2581changed": 4675,
  "\u2581practical": 4676,
  "\u2581families": 4677,
  "\u2581certainly": 4678,
  "\u2581ak\u00fd": 4679,
  "\u2581damage": 4680,
  "\u2581Col": 4681,
  "r\u00e1t": 4682,
  "\u2581Kor": 4683,
  "\u2581purchase": 4684,
  "ick": 4685,
  "rb": 4686,
  "\u2581claim": 4687,
  "\u2581ustanoven\u00e9": 4688,
  "q": 4689,
  "lad": 4690,
  "\u2581traffic": 4691,
  "\u2581najnesk\u00f4r": 4692,
  "\u2581pou\u017e\u00edvania": 4693,
  "related": 4694,
  "\u2581options": 4695,
  "p\u00edsal": 4696,
  "83": 4697,
  "\u2581completely": 4698,
  "\u2581podrobn\u00e9": 4699,
  "\u258104": 4700,
  "\u2581existuj\u00fa": 4701,
  "\u2581Nu\u017e": 4702,
  "\u2581drug": 4703,
  "ste": 4704,
  "ni\u0165": 4705,
  "\u2581riadne": 4706,
  "\u2581Br": 4707,
  "\u2581primeran\u00e9": 4708,
  "\u2581whom": 4709,
  "inu": 4710,
  "\u2581Medzi": 4711,
  "obrazi\u0165": 4712,
  "\u258103": 4713,
  "\u2581sadzby": 4714,
  "FR": 4715,
  "\u2581lie\u010dbe": 4716,
  "\u25812-": 4717,
  "\u2581V\u00fdboru": 4718,
  "\u2581str\u00e1nke": 4719,
  "nos": 4720,
  "\u2581pododsek": 4721,
  "\u2581clean": 4722,
  "\u25812011,": 4723,
  "\u258173": 4724,
  "\u2581priestor": 4725,
  "\u00e9n": 4726,
  "\u2581mus\u00edte": 4727,
  "\u2581v\u0161eobecn\u00e9": 4728,
  "ped": 4729,
  "din": 4730,
  "\u2581plne": 4731,
  "\u2581z\u00e1kona": 4732,
  "ative": 4733,
  "\u2581\u017eiadna": 4734,
  "\u2581Under": 4735,
  ".6.": 4736,
  "\u2581stakeholders": 4737,
  "\u2581cestuj\u00facich": 4738,
  "\u2581Mic": 4739,
  "\u2581odvetv\u00ed": 4740,
  "ako": 4741,
  "n\u00edkov": 4742,
  "\u2581transparency": 4743,
  "\u2581ochrane": 4744,
  "\u2581exporting": 4745,
  "DA": 4746,
  "\u2581frequency": 4747,
  "\u2581metal": 4748,
  "\u2581konca": 4749,
  "\u2581release": 4750,
  "SK": 4751,
  "\u2581c\u00edti": 4752,
  "\u2581conclusion": 4753,
  "\u2581nasleduj\u00facich": 4754,
  "\u2581running": 4755,
  "\u2581recognised": 4756,
  "que": 4757,
  "\u2581toxicity": 4758,
  "\u2581poskytne": 4759,
  "nic": 4760,
  "\u2581Send": 4761,
  "\u2581predmetom": 4762,
  "\u2581vegetables": 4763,
  "\u2581Pomoc": 4764,
  "ju": 4765,
  "\u2581kone\u010dn\u00e9": 4766,
  "\u2581\u013e\u00fato": 4767,
  "\u2581var": 4768,
  "\u2581obsahu": 4769,
  "\u2581respectively": 4770,
  "\u2581commitment": 4771,
  "\u2581enforcement": 4772,
  "gon": 4773,
  "\u2581controlled": 4774,
  "\u2581kids": 4775,
  "\u2581percentage": 4776,
  "\u2581faith": 4777,
  "\u2581pom\u00f4\u017ee": 4778,
  "\u00e1\u017een\u00fd": 4779,
  "\u2581ok": 4780,
  "\u2581kr\u00e1t": 4781,
  "\u2581vyu\u017e\u00edvanie": 4782,
  "\u2581svojmu": 4783,
  "\u2581pr\u00edslu\u0161n\u00fdm": 4784,
  "cept": 4785,
  "74": 4786,
  "rito": 4787,
  "ovou": 4788,
  "\u2581Framework": 4789,
  "\u2581contained": 4790,
  "\u2581gives": 4791,
  "\u2581quickly": 4792,
  "\u2581Sal": 4793,
  "\u2581Zd": 4794,
  "\u2581ur\u010di\u0165": 4795,
  "\u2581North": 4796,
  "\u2581processes": 4797,
  "\u2581pl\u00e1\u017e": 4798,
  "\u2581zvy\u010dajne": 4799,
  "\u2581Although": 4800,
  "\u2581Ber": 4801,
  "\u2581zem": 4802,
  "\u2581subjekty": 4803,
  "\u2581Most": 4804,
  "\u2581zabezpe\u010denia": 4805,
  "ack": 4806,
  "\u2581Lord": 4807,
  "\u2581booking": 4808,
  "\u2581lose": 4809,
  "\u2581linked": 4810,
  "\u2581tabliet": 4811,
  "\u25811995": 4812,
  "ovac\u00ed": 4813,
  "\u2581rozhodne": 4814,
  "\u258108": 4815,
  "\u00cd": 4816,
  "\u2581t\u00edm": 4817,
  "\u2581pod\u00e1va": 4818,
  "led": 4819,
  "\u2581dobu": 4820,
  "\u2581supporting": 4821,
  "\u2581KN": 4822,
  "\u2581distance": 4823,
  "\u2581vyhl\u00e1senie": 4824,
  "\u2581n\u00e1pad": 4825,
  "\u2581accordingly": 4826,
  "\u2581pr\u00edloha": 4827,
  "\u2581places": 4828,
  "\u2581v\u00fddavky": 4829,
  "\u2581organiz\u00e1ci\u00ed": 4830,
  "\u25811996": 4831,
  "\u2581aircraft": 4832,
  "telia": 4833,
  "\u2581inzul\u00edn": 4834,
  "mysl": 4835,
  "\u2581Joe": 4836,
  "\u2581Research": 4837,
  "\u2581hydro": 4838,
  "\u2581107": 4839,
  "\u2581heat": 4840,
  "\u2581Product": 4841,
  "\u2581technick\u00fdch": 4842,
  "mm": 4843,
  "\u2581v\u00fdvoz": 4844,
  "\u2581dl": 4845,
  "via": 4846,
  "\u2581quantity": 4847,
  "10.": 4848,
  "\u25812011.": 4849,
  "\u2581\u013eahko": 4850,
  "\u2581tr": 4851,
  "\u2581seven": 4852,
  "\u258196": 4853,
  "vo\u013e": 4854,
  "\u2581Plan": 4855,
  "\u2581pacienti": 4856,
  "stve": 4857,
  "fik": 4858,
  "\u2581seems": 4859,
  "\u2581mon": 4860,
  "\u2581War": 4861,
  "\u2581minute": 4862,
  "\u2581Tra": 4863,
  "\u25812013,": 4864,
  "\u0161ko": 4865,
  "\u2581Ni": 4866,
  "\u2581green": 4867,
  "\u2581znen\u00ed": 4868,
  "\u2581s\u00fa\u010dasne": 4869,
  "\u258194": 4870,
  "\u2581businesses": 4871,
  "\u2581charakter": 4872,
  "\").": 4873,
  "\u2581indicate": 4874,
  "\u2581dospel\u00fdch": 4875,
  "\u2581media": 4876,
  "\u25812005,": 4877,
  "har": 4878,
  "\u25811234/2007": 4879,
  "\u25812010,": 4880,
  "\u2581West": 4881,
  "\u2581pu": 4882,
  "\u2581pracova\u0165": 4883,
  "\u2581znova": 4884,
  "ted": 4885,
  "\u2581lie\u010dba": 4886,
  "\u2581viete": 4887,
  "\u2581selection": 4888,
  "ade": 4889,
  "\u2581worked": 4890,
  "\u2581consideration": 4891,
  "\u2581nemus\u00ed": 4892,
  "\u2581Gra": 4893,
  "pis": 4894,
  "\u2581vr\u00e1ti\u0165": 4895,
  "test": 4896,
  "\u2581dohoda": 4897,
  "\u2581(6)": 4898,
  "\u00e1lna": 4899,
  "\u00e9ri": 4900,
  "aj\u00fa": 4901,
  "ons": 4902,
  "\u2581doma": 4903,
  "\u2581enterprises": 4904,
  "\u2581Ameri": 4905,
  "\u2581mainly": 4906,
  "\u2581sample": 4907,
  "\u2581u\u017e\u00edva\u0165": 4908,
  "\u2581peror\u00e1ln": 4909,
  "\u2581situ\u00e1cia": 4910,
  "\u2581stroje": 4911,
  "\u2581kl\u00edmy": 4912,
  "\u2581V\u00e1s": 4913,
  "\u2581rozhodnutiu": 4914,
  "\u2581claims": 4915,
  "\u2581flow": 4916,
  "\u2581predpisu": 4917,
  "\u2581story": 4918,
  "pin": 4919,
  "\u2581presence": 4920,
  "\u2581shot": 4921,
  "\u2581menov": 4922,
  "\u2581simply": 4923,
  "\u2581d\u00e1tumu": 4924,
  "\u2581feeling": 4925,
  "\u2581SMEs": 4926,
  "\u2581PO": 4927,
  "\u2581leaflet": 4928,
  "\u2581nemal": 4929,
  "\u2581version": 4930,
  "MI": 4931,
  "\u2581died": 4932,
  "\u258182": 4933,
  "\u2581dvor": 4934,
  "\u2581produce": 4935,
  "\u2581remains": 4936,
  "\u2581Government": 4937,
  "\u2581maxim\u00e1lne": 4938,
  "\u2581hodiny": 4939,
  "zd": 4940,
  "\u2581priate\u013e": 4941,
  "\u2581pr\u00edle\u017eitos\u0165": 4942,
  "\u2581refund": 4943,
  "\u2581soci\u00e1lnych": 4944,
  "\u2581mechanism": 4945,
  "ug": 4946,
  "\u2581modli": 4947,
  "\u2581plat\u00ed": 4948,
  "\u2581vami": 4949,
  "\u2581photos": 4950,
  "IL": 4951,
  "\u00edte": 4952,
  "\u2581smernicou": 4953,
  "\u2581mark": 4954,
  "\u2581Law": 4955,
  "\u2581hr\u00e1\u010d": 4956,
  "\u2581Location": 4957,
  "\u2581nepri": 4958,
  "\u2581Association": 4959,
  "\u2581Data": 4960,
  "\u2581sta\u0165": 4961,
  "is\u0165": 4962,
  "\u2581checks": 4963,
  "\u2581improving": 4964,
  "\u2581n\u00e1kup": 4965,
  "AD": 4966,
  "\u2581za\u010d\u00edna": 4967,
  "\u2581skvel": 4968,
  "\u00edva": 4969,
  "\u2581Kr\u00e1\u013e": 4970,
  "\u2581slovensk": 4971,
  "\u2581o\u010dak\u00e1va": 4972,
  "kup": 4973,
  "\u2581tomorrow": 4974,
  "81": 4975,
  "OD": 4976,
  "ial": 4977,
  "n\u00fa\u0165": 4978,
  "\u2581Regulations": 4979,
  "\u25812004,": 4980,
  "\u2581bezpe\u010dnostn\u00e9": 4981,
  "\u2581UK": 4982,
  "\u2581oper\u00e1cie": 4983,
  "\u2581planning": 4984,
  "gal": 4985,
  "zu": 4986,
  "\u25812013.": 4987,
  "\u2581technol\u00f3gie": 4988,
  "sto": 4989,
  "\u013enohospod\u00e1rskych": 4990,
  "\u2581V\u017edy": 4991,
  "\u2581Game": 4992,
  "\u2581Kontakt": 4993,
  "\u2581individuals": 4994,
  "rac": 4995,
  "\u2581forget": 4996,
  "\u2581n\u00e1zvom": 4997,
  "\u2581delivery": 4998,
  "house": 4999,
  "nn": 5000,
  "\u25811%": 5001,
  "\u2581continued": 5002,
  "\u2581dostali": 5003,
  "\u2581functioning": 5004,
  "l\u00ed": 5005,
  "\u2581Dad": 5006,
  "\u2581radio": 5007,
  "\u2581klinick\u00fdch": 5008,
  "\u2581advantage": 5009,
  "\u2581svedkov": 5010,
  "\u2581subjekt": 5011,
  "d\u00e1va": 5012,
  "\u2581chemical": 5013,
  "\u2581unto": 5014,
  "\u2581stuff": 5015,
  "\u2581relations": 5016,
  "\u2581Bo\u017eie": 5017,
  "\u2581odpovede": 5018,
  "\u258168": 5019,
  "\u2581supposed": 5020,
  "\u2581z\u00e1v\u00e4zky": 5021,
  "\u2581okolnost\u00ed": 5022,
  "\u2581\u00fa\u010dasti": 5023,
  "\u2581sumy": 5024,
  "\u2581skupine": 5025,
  "\u2581valid": 5026,
  "\u2581VAT": 5027,
  "\u2581Ka\u017ed\u00e1": 5028,
  "\u2581(0)": 5029,
  "\u2581tis\u00edc": 5030,
  "\u2581Sk": 5031,
  "EUR": 5032,
  "\u2581powder": 5033,
  "vet": 5034,
  "\u2581alternative": 5035,
  "\u2581slov": 5036,
  "\u2581Romania": 5037,
  "\u2581vie": 5038,
  "\u2581Pi": 5039,
  "\u2581bl": 5040,
  "51": 5041,
  "\u2581anal\u00fdzy": 5042,
  "\u2581Tur": 5043,
  "\u2581et": 5044,
  "\u2581v\u00fdhody": 5045,
  "over": 5046,
  "\u0159": 5047,
  "bav": 5048,
  "ox": 5049,
  "\u2581vial": 5050,
  "\u2581moju": 5051,
  "svet": 5052,
  "\u2581nemo\u017eno": 5053,
  "\u2581sit": 5054,
  "\u2581reform": 5055,
  "hliad": 5056,
  "\u2581conducted": 5057,
  "\u2581m\u00f4c\u0165": 5058,
  "\u2581extreme": 5059,
  "\u2581developments": 5060,
  "ici": 5061,
  "\u2581rastl\u00edn": 5062,
  "\u2581re\u0161taur\u00e1ci": 5063,
  "ick\u00fdch": 5064,
  "yzer\u00e1": 5065,
  "\u2581ved\u013eaj\u0161ie": 5066,
  "\u2581bl\u00edzkosti": 5067,
  "\u2581kapacity": 5068,
  "\u2581tra": 5069,
  "2015": 5070,
  "\u2581pacient": 5071,
  "\u2581pos\u00fadenie": 5072,
  "ni\u010d": 5073,
  "\u2581plat": 5074,
  "\u2581Best": 5075,
  "\u2581chod": 5076,
  "\u2581periods": 5077,
  "ika": 5078,
  "2003": 5079,
  "\u2581Log": 5080,
  "\u2581zodpoved\u00e1": 5081,
  "\u2581treat": 5082,
  "\u2581confirmed": 5083,
  "\u2581ochorenia": 5084,
  "lie": 5085,
  "\u2581dostato\u010dne": 5086,
  "\u2581identify": 5087,
  "\u2581priestoru": 5088,
  "ire": 5089,
  "\u2581lie\u010den\u00fdch": 5090,
  "\u2581Maj": 5091,
  "\u2581agency": 5092,
  "\u2581mora": 5093,
  "\u25814.2": 5094,
  "hrad": 5095,
  ".3.": 5096,
  "\u2581situ\u00e1cii": 5097,
  "cii": 5098,
  "\u2581count": 5099,
  "\u2581svoj\u00edm": 5100,
  "\u2581hurt": 5101,
  "\u2581priemysel": 5102,
  "\u2581pictures": 5103,
  "\u258198": 5104,
  "\u2581\u00fa\u010das\u0165": 5105,
  "\u2581dry": 5106,
  "jav": 5107,
  "\u2581although": 5108,
  "\u2581pobyt": 5109,
  "\u2581Name": 5110,
  "\u2581temporary": 5111,
  "\u2581MSP": 5112,
  "\u2581zah\u0155\u0148aj\u00fa": 5113,
  "\u2581email": 5114,
  "\u2581sister": 5115,
  "\u2581materi\u00e1l": 5116,
  "\u2581Michael": 5117,
  "\u2581Dal": 5118,
  "\u2581pr\u00edbeh": 5119,
  "375": 5120,
  "\u2581cancer": 5121,
  "\u2581image": 5122,
  "\u2581vl\u00e1da": 5123,
  "old": 5124,
  "roz": 5125,
  "\u2581AS": 5126,
  "\u2581ur\u010den\u00fdch": 5127,
  "\u2581gentle": 5128,
  "\u2581thanks": 5129,
  "\u2581loans": 5130,
  "\u2581rozpo\u010det": 5131,
  "\u2581zmluvn": 5132,
  "okrem": 5133,
  "\u2581priorities": 5134,
  "\u2581file": 5135,
  "\u2581\u0161koly": 5136,
  "\u2581prvky": 5137,
  "\u2581cenn\u00fd": 5138,
  "\u2581starostlivosti": 5139,
  "\u2581computer": 5140,
  "\u2581direction": 5141,
  "\u2581former": 5142,
  "\u0161ta": 5143,
  "\u2581ovocia": 5144,
  "\u258191": 5145,
  "\u2581Slovensku": 5146,
  "pod": 5147,
  "\u2581assess": 5148,
  "\u2581v\u00e1\u0161ho": 5149,
  "\u2581hospod\u00e1rskych": 5150,
  "\u2581Daj": 5151,
  "\u2581EXP": 5152,
  "\u2581stup\u0148a": 5153,
  "\u2581nieko\u013ek\u00fdch": 5154,
  "ret": 5155,
  "\u2581do\u0161lo": 5156,
  "\u00f6": 5157,
  "\u2581RE": 5158,
  "\u2581rise": 5159,
  "\u2581agent\u00fara": 5160,
  "eck": 5161,
  "dol": 5162,
  "fen": 5163,
  "\u2581machine": 5164,
  "\u2581absence": 5165,
  "\u2581dohodu": 5166,
  "\u2581ka\u017ed\u00e9": 5167,
  "\u0161\u00edm": 5168,
  "\u2581pravidelne": 5169,
  "ajn": 5170,
  "\u2581\u013eu\u010fom": 5171,
  "\u2581Black": 5172,
  "\u2581div": 5173,
  "ture": 5174,
  "\u2581d\u00f4kaz": 5175,
  "\u2581vyu\u017e\u00edva\u0165": 5176,
  "\u2581link": 5177,
  "zie": 5178,
  "a\u017e": 5179,
  "\u2581nach\u00e1dzaj\u00fa": 5180,
  "pan": 5181,
  "\u2581iron": 5182,
  "\u2581---": 5183,
  "\u2581pe\u0148az\u00ed": 5184,
  "p\u00e1l": 5185,
  "\u2581zomrel": 5186,
  "\u2581estimated": 5187,
  "zy": 5188,
  "\u2581introduced": 5189,
  "\u2581subjects": 5190,
  "\u2581podan\u00ed": 5191,
  "\u2581wear": 5192,
  "tok": 5193,
  "\u2581zmene": 5194,
  "\u2581letov": 5195,
  "\u2581spolo\u010dne": 5196,
  "\u2581potrebu": 5197,
  "\u2581obsahuj\u00fa": 5198,
  "dad": 5199,
  "\u2581led": 5200,
  "\u2581n\u00e1hrady": 5201,
  "\u2581poh\u013ead": 5202,
  "\u2581competitiveness": 5203,
  "TE": 5204,
  "IM": 5205,
  "\u2581recognition": 5206,
  "PT": 5207,
  "OP": 5208,
  "\u2581impairment": 5209,
  "\u2581z\u00e1ujmu": 5210,
  "\u2581dole": 5211,
  "\u2581sold": 5212,
  "\u2581uverejnen\u00ed": 5213,
  "\u2581chc\u00fa": 5214,
  "\u2581husband": 5215,
  "\u2581hypo": 5216,
  "\u2581showed": 5217,
  "ss": 5218,
  "\u2581Red": 5219,
  "\u2581monitorovanie": 5220,
  "year": 5221,
  "ime": 5222,
  "\u2581opatreniach": 5223,
  "\u2581de\u0165mi": 5224,
  "\u2581tela": 5225,
  "\u2581\u017eivote": 5226,
  "\u2581Dis": 5227,
  "\u2581Netherlands": 5228,
  "\u2581jednom": 5229,
  "\u2581dvere": 5230,
  "\u2581\u0161es\u0165": 5231,
  "isation": 5232,
  "\u25814.4": 5233,
  "61": 5234,
  "\u2581\u0161t\u00fadii": 5235,
  "\u2581effectiveness": 5236,
  "\u2581republike": 5237,
  "71": 5238,
  "\u2581vz\u0165ah": 5239,
  "\u2581zmena": 5240,
  "\u2581leading": 5241,
  "stal": 5242,
  "\u25811994": 5243,
  "\u2581info": 5244,
  "\u2581BE": 5245,
  "\u2581Price": 5246,
  "\u2581zalo\u017een\u00e9": 5247,
  "CT": 5248,
  "\u2581siet\u00ed": 5249,
  "\u2581mission": 5250,
  "\u25814-": 5251,
  "\u2581conclusions": 5252,
  "au": 5253,
  "\u2581Cie\u013eom": 5254,
  "No": 5255,
  "\u2581v\u00e4\u010d\u0161ina": 5256,
  "\u2581oni": 5257,
  "\u2581strengthen": 5258,
  "\u2581dlh": 5259,
  "\u2581schv\u00e1lenie": 5260,
  "\u2581pla": 5261,
  "\u2581fan": 5262,
  "\u2581Napr\u00edklad": 5263,
  "\u258107": 5264,
  "\u2581generally": 5265,
  "\u2581king": 5266,
  "\u0164": 5267,
  "\u2581chcela": 5268,
  "uj\u00faci": 5269,
  "\u2581dok\u00e1\u017ee": 5270,
  "\u2581spolo\u010dn\u00fdch": 5271,
  "\u2581vn\u00fatorn\u00e9ho": 5272,
  "vrh": 5273,
  "\u2581obsahuj\u00face": 5274,
  "\u2581Tvoj": 5275,
  "\u2581uvies\u0165": 5276,
  "\u2581regi\u00f3nov": 5277,
  "63": 5278,
  "\u2581Slovensk": 5279,
  "\u2581CE": 5280,
  "\u2581byt": 5281,
  "\u2581re\u017eimu": 5282,
  "\u2581trading": 5283,
  "\u010dov": 5284,
  "\u2581entitled": 5285,
  "ole": 5286,
  "\u2581sklad": 5287,
  "\u2581rozpo\u010dtov\u00e9": 5288,
  "\u2581krit\u00e9ri\u00ed": 5289,
  "\u2581sodium": 5290,
  "\u2581Anti": 5291,
  "\u25814:": 5292,
  "\u2581pripomienky": 5293,
  "\u2581pozor": 5294,
  "\u2581Over": 5295,
  "\u2581\u00faradu": 5296,
  "\u2581emergency": 5297,
  "\u2581ozn\u00e1men\u00ed": 5298,
  "\u2581stavu": 5299,
  "\u2581pass": 5300,
  "ien": 5301,
  "\u2581pr\u00edspevok": 5302,
  "\u2581Frank": 5303,
  "\u2581Listen": 5304,
  "\u2581offered": 5305,
  "\u2581Dar": 5306,
  "\u2581dodato\u010dn\u00e9": 5307,
  "\u2581Green": 5308,
  "\u017d": 5309,
  "pad": 5310,
  "\u2581Area": 5311,
  "Ne": 5312,
  "zia": 5313,
  "\u2581shares": 5314,
  "excluding": 5315,
  "Pre": 5316,
  "\u2581Pla": 5317,
  "\u2581plasma": 5318,
  "\u2581za\u010dal": 5319,
  "\u013e\u00fab": 5320,
  "\u2581noted": 5321,
  "\u2581century": 5322,
  "\u2581equipped": 5323,
  "\u2581zabezpe\u010d\u00ed": 5324,
  "\u2581odvetvie": 5325,
  "\u2581lode": 5326,
  "\u2581soci\u00e1lnej": 5327,
  "\u2581mimoriadne": 5328,
  "\u2581highly": 5329,
  "\u2581noriem": 5330,
  "\u2581contributions": 5331,
  "\u2581measured": 5332,
  ".1.": 5333,
  "\u2581lines": 5334,
  "\u2581examination": 5335,
  "\u2581radi": 5336,
  "\u2581pracuje": 5337,
  "\u2581Asi": 5338,
  "vest": 5339,
  "\u2581Mom": 5340,
  "\u2581consistent": 5341,
  "52": 5342,
  "TA": 5343,
  "\u2581injury": 5344,
  "\u2581proper": 5345,
  "European": 5346,
  "\u2581Does": 5347,
  "\u258178": 5348,
  "\u2581acting": 5349,
  "\u2581akt\u00edvne": 5350,
  "\u2581RT": 5351,
  "\u2581potrebn\u00e1": 5352,
  "\u2581kombin\u00e1cii": 5353,
  "ser": 5354,
  "cou": 5355,
  "\u2581nuclear": 5356,
  "\u2581spracovanie": 5357,
  "\u2581Ms": 5358,
  "dan": 5359,
  "coated": 5360,
  "\u2581log": 5361,
  "\u2581Jeden": 5362,
  "\u2581Ki": 5363,
  "\u2581zoh\u013eadni\u0165": 5364,
  "\u2581v\u0161etk\u00fdmi": 5365,
  "\u2581umo\u017eni\u0165": 5366,
  "\u2581worry": 5367,
  "rn": 5368,
  "\u2581podpori\u0165": 5369,
  "\u2581art": 5370,
  "\u2581securities": 5371,
  "\u2581Post": 5372,
  "\u2581medzin\u00e1rodnej": 5373,
  "riti": 5374,
  "\u2581Africa": 5375,
  "\u2581opis": 5376,
  "\u2581mal\u00fd": 5377,
  "\u2581determining": 5378,
  "\u2581\u010cesk": 5379,
  "\u2581poor": 5380,
  "\u2581strategic": 5381,
  "\u2581noci": 5382,
  "\u2581Gar": 5383,
  "\u2581Bio": 5384,
  "\u2581smer": 5385,
  "\u2581trials": 5386,
  "\u2581inej": 5387,
  "\u2581Sub": 5388,
  "list": 5389,
  "\u2581vykon\u00e1van\u00ed": 5390,
  "--": 5391,
  "ola": 5392,
  "\u2581krajina": 5393,
  "ada": 5394,
  "Do": 5395,
  "lar": 5396,
  "\u2581infection": 5397,
  "\u2581IS": 5398,
  "\u2581carbon": 5399,
  "-5": 5400,
  "\u2581s\u00fabor": 5401,
  "\u2581osobitn\u00fdch": 5402,
  "\u2581sp\u013a\u0148a": 5403,
  "\u2581twice": 5404,
  "adies": 5405,
  "ax": 5406,
  "\u2581agencies": 5407,
  "\u2581surveillance": 5408,
  "BI": 5409,
  "\u2581800": 5410,
  "\u2581languages": 5411,
  "Ma": 5412,
  "pel": 5413,
  "\u2581obtain": 5414,
  "\u2581Mala": 5415,
  "\u2581tonight": 5416,
  "\u2581D\u00fafa": 5417,
  "\u2581spolo\u010dnos\u0165ou": 5418,
  "\u2581COM": 5419,
  "\u2581mori": 5420,
  "\u2581destination": 5421,
  "\u2581representatives": 5422,
  "huh": 5423,
  "\u2581pon\u00fak": 5424,
  "\u2581druh\u00e9": 5425,
  "bank": 5426,
  "\u2581\u00fa\u010dinkov": 5427,
  "\u2581poz": 5428,
  "vedom": 5429,
  "\u2581smr\u0165": 5430,
  "\u2581sweet": 5431,
  "\u2581deficit": 5432,
  "\u2581favorit": 5433,
  "\u00b0": 5434,
  "\u2581ON": 5435,
  "\u2581kr\u00e1\u013eovstvo": 5436,
  "\u2581v\u00fd\u0161ka": 5437,
  "\u2581serve": 5438,
  "xi": 5439,
  "\u2581Dohody": 5440,
  "\u2581po\u017eiadavkami": 5441,
  "/2007": 5442,
  "\u2581accept": 5443,
  "\u2581mier": 5444,
  "\u2581healthy": 5445,
  "\u2581rapporteur": 5446,
  "\u2581Portugal": 5447,
  "\u2581Watch": 5448,
  "\u2581mesiac": 5449,
  "kin": 5450,
  "\u2581predstav": 5451,
  "\u258181": 5452,
  "CI": 5453,
  "MS": 5454,
  "UN": 5455,
  "General": 5456,
  "TO": 5457,
  "\u2581playing": 5458,
  "\u2581assessed": 5459,
  "\u2581J\u00fal": 5460,
  "\u2581\u010dlenovia": 5461,
  "\u25812012.": 5462,
  "\u2581pohyb": 5463,
  "mes": 5464,
  "\u2581Par": 5465,
  "\u2581military": 5466,
  "\u2581coffee": 5467,
  "\u2581reducing": 5468,
  "\u2581promoting": 5469,
  "\u2581ozn\u00e1menie": 5470,
  "\u2581Give": 5471,
  "\u2581chv\u00ed\u013eu": 5472,
  "\u2581plynu": 5473,
  "\u2581hra\u0165": 5474,
  "93": 5475,
  "\u2581vstup": 5476,
  "\u2581amendment": 5477,
  "\u017e\u00ed": 5478,
  "\u2581p\u00f4jde": 5479,
  "\u2581dospel": 5480,
  "\u2581agents": 5481,
  "\u2581ingredients": 5482,
  "\u2581List": 5483,
  "RI": 5484,
  "zor": 5485,
  "\u2581add": 5486,
  "\u2581\u017ei\u0165": 5487,
  "\u2581cold": 5488,
  "\u2581rib": 5489,
  "\u2581sometimes": 5490,
  "\u2581\u0161t\u00fadi\u00ed": 5491,
  "\u2581pova\u017euj\u00fa": 5492,
  "2007": 5493,
  "lon": 5494,
  "\u2581compensation": 5495,
  "\u2581introduction": 5496,
  "\u2581z\u00e1sob": 5497,
  "\u2581Mer": 5498,
  "\u258176": 5499,
  "\u2581fisheries": 5500,
  "\u2581instead": 5501,
  "\u2581influence": 5502,
  "tick\u00e9": 5503,
  "\u2581experts": 5504,
  "\u2581ob\u010dianskej": 5505,
  "\u2581expert": 5506,
  "u\u017e": 5507,
  "\u2581hovoril": 5508,
  "\u2581comprehensive": 5509,
  "}": 5510,
  "\u2581intra": 5511,
  "Text": 5512,
  "eth": 5513,
  "\u0161ou": 5514,
  "\u2581nasleduj\u00face": 5515,
  "\u258169": 5516,
  "\u2581protokolu": 5517,
  "\u25812012,": 5518,
  "dajte": 5519,
  "AM": 5520,
  "ability": 5521,
  "inky": 5522,
  "\u2581verejnosti": 5523,
  "\u2581Videl": 5524,
  "aw": 5525,
  "uz": 5526,
  "rist": 5527,
  "\u2581season": 5528,
  "\u2581pr\u00edznaky": 5529,
  "lom": 5530,
  "\u2581Austria": 5531,
  "\u2581signed": 5532,
  "\u2581aktivity": 5533,
  "ious": 5534,
  "\u258125%": 5535,
  "\u2581pomer": 5536,
  "\u2581highest": 5537,
  "\u2581lov": 5538,
  "\u2581competitive": 5539,
  "\u2581Boli": 5540,
  "\u2581str\u00e1nka": 5541,
  "\u2581micro": 5542,
  "rea": 5543,
  "\u2581rozhodn\u00fa\u0165": 5544,
  "rant": 5545,
  "\u2581Italian": 5546,
  "{": 5547,
  "\u2581raw": 5548,
  "\u2581sk\u00fa\u0161ky": 5549,
  "\u2581Patients": 5550,
  "2014": 5551,
  "\u2581win": 5552,
  "\u2581extended": 5553,
  "kov\u00fd": 5554,
  "\u2581licence": 5555,
  "\u2581triedy": 5556,
  "\u2581dr": 5557,
  "\u2581judgment": 5558,
  "ske": 5559,
  "\u2581Picture": 5560,
  "\u2581Posledn": 5561,
  "\u2581allows": 5562,
  "\u2581Safety": 5563,
  "\u2581mouth": 5564,
  "\u2581GmbH": 5565,
  "\u2581bodov": 5566,
  "\u2581Lebo": 5567,
  "\u2581materi\u00e1lu": 5568,
  "\u2581hospod\u00e1rske": 5569,
  "\u258109": 5570,
  "\u2581kar": 5571,
  "\u2581Povedz": 5572,
  "\u2581signs": 5573,
  "\u2581obchodn\u00e9": 5574,
  "\u2581worth": 5575,
  "ral": 5576,
  "\u2581profile": 5577,
  "\u2581intervention": 5578,
  "gan": 5579,
  "\u258179": 5580,
  "\u2581Mark": 5581,
  "\u2581kone\u010dnom": 5582,
  "\u2581repeal": 5583,
  "\u2581vidieka": 5584,
  "\u2581predlo\u017ei\u0165": 5585,
  "free": 5586,
  "mus": 5587,
  "\u2581combined": 5588,
  "\u2581derogation": 5589,
  "\u2581z\u00e1ver": 5590,
  "\u2581American": 5591,
  "9.": 5592,
  "\u010dky": 5593,
  "\u2581fond": 5594,
  "\u2581skuto\u010dn\u00e9": 5595,
  "\u2581seem": 5596,
  "\u2581calculation": 5597,
  "\u2581voice": 5598,
  "\u2581drawn": 5599,
  "\u2581Mari": 5600,
  "\u2581oboch": 5601,
  "dd": 5602,
  "You": 5603,
  "\u2581zml\u00fav": 5604,
  "\u2581learning": 5605,
  "\u2581Far": 5606,
  "\u2581Ak\u00fd": 5607,
  "\u2581effort": 5608,
  "\u2581energetickej": 5609,
  "\u2581pokles": 5610,
  "\u2581dobro": 5611,
  "\u2581vessel": 5612,
  "\u2581navrhuje": 5613,
  "ks": 5614,
  "\u2581Russia": 5615,
  "\u2581stranami": 5616,
  "\u2581heaven": 5617,
  "ima": 5618,
  "\u2581felt": 5619,
  "\u2581born": 5620,
  "\u00edt": 5621,
  "/10": 5622,
  "\u2581employees": 5623,
  "\u2581zodpovedn\u00fd": 5624,
  "\u2581\u00b1": 5625,
  "lex": 5626,
  "\u2581provisional": 5627,
  "\u2581cesta": 5628,
  "\u2581klinick": 5629,
  "\u2581pododseku": 5630,
  "\u2581predsedaj\u00faci": 5631,
  "\u2581features": 5632,
  "\u2581ruky": 5633,
  "\u2581o\u010di": 5634,
  "\u00e1ci\u00ed": 5635,
  "\u2581rybolovu": 5636,
  "\u2581successful": 5637,
  "2016": 5638,
  "\u2581minulosti": 5639,
  "\u2581tret\u00edm": 5640,
  "t\u00e9": 5641,
  "NA": 5642,
  "\u2581mal\u00fdch": 5643,
  "\u2581daughter": 5644,
  "cit": 5645,
  "\u2581effectively": 5646,
  "\u2581store": 5647,
  "\u2581digital": 5648,
  "\u2581functions": 5649,
  "\u2581existuj\u00facich": 5650,
  "\u2581trouble": 5651,
  "\u2581\u0148u": 5652,
  "\u2581syringe": 5653,
  "\u2581neod": 5654,
  "\u2581zodpovednosti": 5655,
  "log": 5656,
  "\u2581cla": 5657,
  "\u2581srdca": 5658,
  "\u2581tabu\u013eke": 5659,
  "\u2581136": 5660,
  "\u258171": 5661,
  "\u2581Up": 5662,
  "\u2581Members": 5663,
  "\u2581village": 5664,
  "\u2581hr": 5665,
  "\u2581Brat": 5666,
  "\u2581Cor": 5667,
  "\u2581Spolo\u010dnos\u0165": 5668,
  "ON": 5669,
  "are": 5670,
  "\u2581reading": 5671,
  "\u2581\u010dl\u00e1nkov": 5672,
  "ult": 5673,
  "\u2581prijme": 5674,
  "Mo": 5675,
  "\u2581splnen\u00e9": 5676,
  "\u011b": 5677,
  "To": 5678,
  "\u2581N\u00e1vrh": 5679,
  "\u2581reasonable": 5680,
  "\u2581instructions": 5681,
  "\u2581lo\u010f": 5682,
  "\u2581com": 5683,
  ".00": 5684,
  "\u2581agenda": 5685,
  "\u2581holiday": 5686,
  "\u2581Before": 5687,
  "\u2581n\u00e1vrhov": 5688,
  "\u2581\u0160t": 5689,
  "\u2581mor": 5690,
  "ans": 5691,
  "\u2581doh\u00f4d": 5692,
  "\u2581predpismi": 5693,
  "\u2581hodn\u00f4t": 5694,
  "\u2581differences": 5695,
  "tka": 5696,
  "\u2581kroky": 5697,
  "\u2581pre\u0161etrovania": 5698,
  "\u2581hmotnos\u0165": 5699,
  "\u2581breast": 5700,
  "\u2581revenue": 5701,
  "ale": 5702,
  "\u2581Products": 5703,
  "\u2581z\u00e1v\u00e4zkov": 5704,
  "\u2581n\u00e1sledne": 5705,
  "\u2581\u010dl\u00e1nky": 5706,
  "\u2581olej": 5707,
  "\u2581syst\u00e9me": 5708,
  "\u2581pos": 5709,
  "\u2581doktor": 5710,
  "\u2581zd\u00e1": 5711,
  "\u2581mom": 5712,
  "\u2581ostrov": 5713,
  "\u2581pool": 5714,
  "\u2581schopnosti": 5715,
  "\u2581explain": 5716,
  "\u2581pr\u00edjmov": 5717,
  "\u2581decrease": 5718,
  "\u2581suma": 5719,
  "\u2581community": 5720,
  "dl": 5721,
  "\u2581n\u00e1rodn\u00e9": 5722,
  "\u2581accounting": 5723,
  "\u2581celkov\u00e9ho": 5724,
  "eli": 5725,
  "\u2581kr\u00edzy": 5726,
  "\u2581sun": 5727,
  "MA": 5728,
  "ond": 5729,
  "\u2581currency": 5730,
  "\u2581codes": 5731,
  "\u2581vyu\u017e\u00edva": 5732,
  "ria": 5733,
  "f\u00e9r": 5734,
  "\u258105": 5735,
  "\u2581jednotliv\u00e9": 5736,
  "\u2581strength": 5737,
  "\u2581Test": 5738,
  "\u2265": 5739,
  "\u2581geographical": 5740,
  "\u2581srdce": 5741,
  "2011": 5742,
  "star": 5743,
  "\u2581Max": 5744,
  "ovaniu": 5745,
  "ciou": 5746,
  "ick\u00e1": 5747,
  "\u2581fondov": 5748,
  "\u2581criminal": 5749,
  "\u2581governance": 5750,
  "\u2581recorded": 5751,
  "2005": 5752,
  "\u2581autor": 5753,
  "\u2581v\u00fdrobn\u00e9": 5754,
  "\u2581Moja": 5755,
  "\u2581spravil": 5756,
  "\u2581druhom": 5757,
  "\u2581component": 5758,
  "\u2581Hor": 5759,
  "\u2581programe": 5760,
  "\u2581vysokej": 5761,
  "\u2581Mag": 5762,
  "\u2581promotion": 5763,
  "\u2581waiting": 5764,
  "ash": 5765,
  "\u2581Egypt": 5766,
  "vr": 5767,
  "\u2581symbol": 5768,
  "\u010dl\u00e1nok": 5769,
  "\u2581sledova\u0165": 5770,
  "\u2581Av\u0161ak": 5771,
  "\u2581brain": 5772,
  "\u25812014.": 5773,
  "\u2581sily": 5774,
  "\u2581situations": 5775,
  "nky": 5776,
  "\u2581hodnote": 5777,
  "\u2581chem": 5778,
  "\u2581tak\u00e9ho": 5779,
  "\u2581umo\u017en\u00ed": 5780,
  "\u2581carrying": 5781,
  "\u2581targets": 5782,
  "\u2581inspection": 5783,
  "NE": 5784,
  "\u2581najsk\u00f4r": 5785,
  "\u2581Nothing": 5786,
  "\u2581Franc\u00fazsko": 5787,
  "\u2581figure": 5788,
  "\u2581pe": 5789,
  "ji": 5790,
  "\u2581sek": 5791,
  "\u2581\u00farokov": 5792,
  "\u2581Service": 5793,
  "\u2581Program": 5794,
  "\u2581whatever": 5795,
  "\u2581fot": 5796,
  "\u2581girls": 5797,
  "\"),": 5798,
  "\u2581nov\u00fa": 5799,
  "\u2581maxim\u00e1ln": 5800,
  "\u2581finance": 5801,
  "\u2581dangerous": 5802,
  "\u2581pr\u00e1vneho": 5803,
  "\u2581priemyslu": 5804,
  "\u2581ot\u00e1zka": 5805,
  "\u2581zasadnut\u00ed": 5806,
  "\u2581v\u0161eobecnosti": 5807,
  "\u2581ahead": 5808,
  "ura": 5809,
  "000": 5810,
  "\u258130%": 5811,
  "\u2581nehnute\u013enosti": 5812,
  "\u2581kol": 5813,
  "\u2581dog": 5814,
  "\u2581v\u00fdchod": 5815,
  "\u2581\u013eudsk\u00e9": 5816,
  "\u2581tariff": 5817,
  "\u2581verification": 5818,
  "\u2581knihy": 5819,
  "ovalo": 5820,
  "\u2581vzia\u0165": 5821,
  "\u2581resp": 5822,
  "\u2581K\u00f3d": 5823,
  "\u2581Najlep\u0161i": 5824,
  "\u2581Strategy": 5825,
  "\u2581dokumenty": 5826,
  "\u2581uniform": 5827,
  "\u2581alcohol": 5828,
  "\u2581trend": 5829,
  "\u2581picture": 5830,
  "\u2581rokmi": 5831,
  "metyl": 5832,
  "\u2581trip": 5833,
  "\u2581procurement": 5834,
  "\u2581players": 5835,
  "\u2581krok": 5836,
  "\u2581Han": 5837,
  "tle": 5838,
  "\u2581recital": 5839,
  "\u2581125": 5840,
  "\u2581jazyku": 5841,
  "\u2581sv\u00e4t": 5842,
  "\u2581Adam": 5843,
  "\u2581Many": 5844,
  "\u2581jednotiek": 5845,
  "\u2581commitments": 5846,
  "\u2581clo": 5847,
  "\u2581s\u00fa\u010das\u0165": 5848,
  "\u2581AUTHORISATION": 5849,
  "\u2581Syn": 5850,
  "ST": 5851,
  "\u2581goal": 5852,
  "\u2581na\u0161a": 5853,
  "\u2581\u00faloh": 5854,
  "\u2581sets": 5855,
  "\u2581prijatie": 5856,
  "\u2581v\u00fdlu\u010dne": 5857,
  "\u2581charges": 5858,
  "\u2581web": 5859,
  "\u2581ka\u017ed": 5860,
  "\u2581Belgium": 5861,
  "\u2581pr\u00edle\u017eitosti": 5862,
  "ory": 5863,
  "\u2581imposed": 5864,
  "\u2581refer": 5865,
  "\u2581flight": 5866,
  "\u2581z\u00edskan\u00e9": 5867,
  "\u2581infusion": 5868,
  "\u2581encourage": 5869,
  "nal": 5870,
  "\u2581prevention": 5871,
  "\u2581Business": 5872,
  "\u2581correct": 5873,
  "\u2581delay": 5874,
  "\u2581Hovor\u00ed": 5875,
  "\u2581vzdel\u00e1vanie": 5876,
  "\u2581raise": 5877,
  "/1": 5878,
  "unny": 5879,
  "\u2581bu": 5880,
  "\u2581mechanisms": 5881,
  "\u2581Vykon\u00e1vacie": 5882,
  "\u2581v\u00fdznamn\u00e9": 5883,
  "\u2581Spr\u00e1va": 5884,
  "\u2581uveden\u00e1": 5885,
  "\u2581predch\u00e1dzaj\u00faci": 5886,
  "\u2581ak\u00fdm": 5887,
  "\u2581Lip": 5888,
  "\u2581acquis": 5889,
  "\u2581mieru": 5890,
  "\u2581prijatia": 5891,
  "\u2581\u017de": 5892,
  "\u2581Road": 5893,
  "\u258189": 5894,
  "\u2581round": 5895,
  "\u2581straty": 5896,
  "\u2581permanent": 5897,
  "\u2581USE": 5898,
  "\u2581znenie": 5899,
  "\u2581Finally": 5900,
  "\u2581Jim": 5901,
  "\u2581pri\u0161li": 5902,
  "rid": 5903,
  "\u2581tak\u00e1": 5904,
  "cej": 5905,
  "\u2581profit": 5906,
  "\u2581indicators": 5907,
  "\u2581Mohl": 5908,
  "\u2581crazy": 5909,
  "\u2581vopred": 5910,
  "\u2581za\u010dala": 5911,
  "lig": 5912,
  "eva": 5913,
  "\u2581Em": 5914,
  "\u2581tv\u00e1r": 5915,
  "7%": 5916,
  "\u2581Bra": 5917,
  "\u2581allocated": 5918,
  "\u2581em": 5919,
  "\u2581rie\u0161i\u0165": 5920,
  "ure": 5921,
  "\u2581kapitoly": 5922,
  "\u2581flag": 5923,
  "\u2581Time": 5924,
  "nici": 5925,
  "\u2581scale": 5926,
  "\u2581\u0161tyroch": 5927,
  "\u2581papierov": 5928,
  "\u2581kitchen": 5929,
  "\u2581secure": 5930,
  "\u2581track": 5931,
  "\u2581leaving": 5932,
  "\u2581opened": 5933,
  "\u2581driving": 5934,
  "\u2581solidarity": 5935,
  "press": 5936,
  "\u258177": 5937,
  "\u2581Land": 5938,
  "\u2581pohode": 5939,
  "\u2581aplik\u00e1cie": 5940,
  "\u2581vn\u00fatorn\u00fd": 5941,
  "\u2581neutr": 5942,
  "\u2581zeleniny": 5943,
  "EX": 5944,
  "\u2581103": 5945,
  "ela": 5946,
  "\u2581Jedn": 5947,
  "\u2581v\u00fdsledok": 5948,
  "\u2581server": 5949,
  "\u2581van": 5950,
  "\u2581reaction": 5951,
  "\u2581involving": 5952,
  "\u2581po\u017eiada\u0165": 5953,
  "t\u00e1n": 5954,
  "\u2581pr\u00edpady": 5955,
  "otrebujem": 5956,
  "\u2581grounds": 5957,
  "\u2581Spanish": 5958,
  "\u2581stanoven\u00e1": 5959,
  "\u2581falling": 5960,
  "\u25812014,": 5961,
  "\u2581write": 5962,
  "\u2581bud\u00faci": 5963,
  "pln": 5964,
  "\u2581poruchy": 5965,
  "\u2581prostred\u00ed": 5966,
  "\u2581ve\u013ekosti": 5967,
  "\u2581supervision": 5968,
  "\u2581\u0161irok": 5969,
  "\u2581allocation": 5970,
  "h\u00e1": 5971,
  "iness": 5972,
  "ovate\u013e": 5973,
  "\u2581za\u010dne": 5974,
  "\u2581\u010ci": 5975,
  "\u2581buildings": 5976,
  "\u2581dohovoru": 5977,
  "ew": 5978,
  "\u2581Mel": 5979,
  "\u2581aimed": 5980,
  "\u2581tool": 5981,
  "\u2581Ad": 5982,
  "ality": 5983,
  "\u2581Taliansko": 5984,
  "\u2581students": 5985,
  "\u2581rokovan\u00ed": 5986,
  "\u2581train": 5987,
  "\u2581Tr": 5988,
  "\u2581Bre": 5989,
  "\u2581lu": 5990,
  "\u2581diseases": 5991,
  "\u2581taktie\u017e": 5992,
  "\u2581Ku": 5993,
  "\u2581rozdiely": 5994,
  "lic": 5995,
  "cer": 5996,
  "\u25811990": 5997,
  "\u2581v\u00fdrobcu": 5998,
  "\u010dina": 5999,
  "\u2581electric": 6000,
  "\u2581\u017eiv": 6001,
  "\u2581Help": 6002,
  "lick": 6003,
  "\u2581vn\u00fatri": 6004,
  "\u2581designated": 6005,
  "\u2581BY": 6006,
  "\u2581prenos": 6007,
  "\u2581improved": 6008,
  "\u2581Tak\u00e9": 6009,
  "\u2581os": 6010,
  "av": 6011,
  "\u2581closed": 6012,
  "\u2581Presne": 6013,
  "tip": 6014,
  "\u2581sort": 6015,
  "\u2581Art": 6016,
  "\u2581success": 6017,
  "\u2581Affairs": 6018,
  "ovia": 6019,
  "pat": 6020,
  "\u2581pracovn": 6021,
  "\u2581suspension": 6022,
  "por": 6023,
  "\u2581summer": 6024,
  "tk": 6025,
  "til": 6026,
  "\u00fato": 6027,
  "\u2581tlaku": 6028,
  "\u00edci": 6029,
  "\u2581mono": 6030,
  "\u2581vyu\u017e\u00edvania": 6031,
  "row": 6032,
  "but": 6033,
  "pot": 6034,
  "\u2581stocks": 6035,
  "\u2581ur\u010denia": 6036,
  "\u258191/414/": 6037,
  "\u2581z\u00e1pas": 6038,
  "\u2581zlo\u017eky": 6039,
  "p\u00ed\u0161e": 6040,
  "\u2581Company": 6041,
  "\u2581mmol": 6042,
  "\u2581usmernen\u00ed": 6043,
  "\u2581namiesto": 6044,
  "\u2581lacn": 6045,
  "\u2581spiritual": 6046,
  "\u2581statistical": 6047,
  "\u2581flat": 6048,
  "\u2581uplat\u0148ovan\u00ed": 6049,
  "\u2581mas": 6050,
  "\u2581\u010fakujem": 6051,
  "\u2581budgetary": 6052,
  "\u2581closely": 6053,
  "\u2581pick": 6054,
  "\u2581posilni\u0165": 6055,
  "\u2581z\u00e1ruky": 6056,
  "bou": 6057,
  "\u2581\u0161pecifick\u00e9": 6058,
  "\u2581vy\u017eaduj\u00fa": 6059,
  "\u2581jednou": 6060,
  "low": 6061,
  "\u2581seat": 6062,
  "\u2581structural": 6063,
  "\u2581settlement": 6064,
  "\u2581zavies\u0165": 6065,
  "\u2581index": 6066,
  "\u2581zosta\u0165": 6067,
  "\u2581predsa": 6068,
  "sta\u0165": 6069,
  "\u2581growing": 6070,
  "-6": 6071,
  "\u2581lie": 6072,
  "\u2581potraviny": 6073,
  "OT": 6074,
  "\u2581rare": 6075,
  "\u2581z\u00e1le\u017eitosti": 6076,
  "TP": 6077,
  "\u2581ustanoveniami": 6078,
  "\u2581bomb": 6079,
  "\u2581d\u00e1vke": 6080,
  "\u017eiv": 6081,
  "\u2581mine": 6082,
  "\u2581Standard": 6083,
  "\u2581oddiele": 6084,
  "\u2581incorporated": 6085,
  "\u2581pregnant": 6086,
  "\u2581reviews": 6087,
  "\u2581deep": 6088,
  "\u2581dvakr\u00e1t": 6089,
  ".8.": 6090,
  "\u2581recently": 6091,
  "\u2581constitute": 6092,
  "dumping": 6093,
  "\u2581fear": 6094,
  "\u25813-": 6095,
  "\u2581Va\u0161e": 6096,
  "tru": 6097,
  "\u0161ka": 6098,
  "\u2581uveden\u00fdmi": 6099,
  "\u2581potenci\u00e1l": 6100,
  "\u2581Sha": 6101,
  "-4": 6102,
  "\u2581diet": 6103,
  "\u2581mus\u00ed\u0161": 6104,
  "\u0155": 6105,
  "\u2581hviezd": 6106,
  "\u2581window": 6107,
  "\u013enohospod\u00e1rstvo": 6108,
  "\u2581degree": 6109,
  "\u2581Miss": 6110,
  "\u017eit": 6111,
  "\u2581quota": 6112,
  "\u2581veterinary": 6113,
  "ru\u010d": 6114,
  "iou": 6115,
  "\u2581mail": 6116,
  "ize": 6117,
  "nite": 6118,
  "3)": 6119,
  "\u2581updated": 6120,
  "\u2581obraz": 6121,
  "\u2581bear": 6122,
  ".1": 6123,
  "\u2581kyseliny": 6124,
  "\u2581nem\u00f4\u017eu": 6125,
  "\u2581East": 6126,
  "\u25811)": 6127,
  "\u2581jednoduch\u00e9": 6128,
  "\u2581Tabu\u013eka": 6129,
  "\u2581respective": 6130,
  "\u2581Luxembourg": 6131,
  "\u2581kv\u00f3ty": 6132,
  "jo": 6133,
  "\u2581moving": 6134,
  "\u2581navy\u0161e": 6135,
  "\u2581names": 6136,
  "\u2581ocele": 6137,
  "\u2581skoro": 6138,
  "\u2581wind": 6139,
  "\u2581predlo\u017een\u00e9": 6140,
  "dov": 6141,
  "\u2581dostane": 6142,
  "\u2581fund": 6143,
  "\u2581energiu": 6144,
  "\u2581osobitne": 6145,
  "\u2581panel": 6146,
  "\u2581sheet": 6147,
  "\u2581Wa": 6148,
  "\u2581vzniku": 6149,
  "\u2581positions": 6150,
  "\u2581Lot": 6151,
  "\u2581Slovensko": 6152,
  "\u2581sites": 6153,
  "mo\u017e": 6154,
  "\u2581hospital": 6155,
  "\u2581Spolo\u010dn\u00e9": 6156,
  "\u2581za\u010dali": 6157,
  "\u2581enhance": 6158,
  "\u2581improvement": 6159,
  "\u2581nebud\u00fa": 6160,
  "zna": 6161,
  "\u2581appear": 6162,
  "RS": 6163,
  "\u010dil": 6164,
  "\u2581filmom": 6165,
  "rin": 6166,
  "filled": 6167,
  "\u2581modified": 6168,
  "\u25811.1": 6169,
  "sk\u00fa": 6170,
  "\u2581afraid": 6171,
  "\u2581played": 6172,
  "\u2581podobe": 6173,
  "\u2581metrov": 6174,
  "\u2581adult": 6175,
  "\u2581crime": 6176,
  "\u2581Ukraine": 6177,
  "nt": 6178,
  "TM": 6179,
  "\u2581Op": 6180,
  "isko": 6181,
  "-1-": 6182,
  "\u2581emisie": 6183,
  "\u2581burden": 6184,
  "\u2581adults": 6185,
  "1999": 6186,
  "\u2581sie\u0165": 6187,
  "ple": 6188,
  "\u2581island": 6189,
  "e\u0161": 6190,
  "\u2581aware": 6191,
  "\u2581nesm\u00fa": 6192,
  "\u2581ktor\u00e9mu": 6193,
  "\u2581touch": 6194,
  "\u2581Next": 6195,
  "ona": 6196,
  "\u2581prij\u00edma": 6197,
  "stri": 6198,
  "\u2581180": 6199,
  "\u2581Without": 6200,
  "a\u0161u": 6201,
  "\u2581HDP": 6202,
  "\u2581udalosti": 6203,
  "\u2581guide": 6204,
  "ius": 6205,
  "riad": 6206,
  "\u2581inzul\u00ednu": 6207,
  "\u2581\u017eije": 6208,
  "don": 6209,
  "\u2581King": 6210,
  "\u2581Cho\u010f": 6211,
  "\u2581mobile": 6212,
  "\u2581Father": 6213,
  "\u2581medzin\u00e1rodn\u00e9": 6214,
  "\u2581committee": 6215,
  "\u2581Pal": 6216,
  "\u2581referen\u010dn\u00e9": 6217,
  "\u2581otca": 6218,
  "\u2581pr\u00eds\u0165": 6219,
  "\u2581interesting": 6220,
  "\u2581v\u00fdrobn\u00e9ho": 6221,
  "\u2581participate": 6222,
  "\u2581odpad": 6223,
  "\u2581zauj\u00edma": 6224,
  "SZBP": 6225,
  "\u2581Would": 6226,
  "\u2581izbu": 6227,
  "\u2581loan": 6228,
  "\u2581vykon\u00e1vaj\u00fa": 6229,
  "\u2581obsahova\u0165": 6230,
  "\u2581seek": 6231,
  "\u2581translation": 6232,
  "vor": 6233,
  "VA": 6234,
  "\u2581obmedzen\u00e9": 6235,
  "\u2581married": 6236,
  "\u2581earlier": 6237,
  "\u2581Trans": 6238,
  "\u2581ot\u00e1zok": 6239,
  "\u013d": 6240,
  "pl": 6241,
  "\u2581easily": 6242,
  "\u2581Chi": 6243,
  "\u2581station": 6244,
  "\u2581strojov": 6245,
  "well": 6246,
  "\u2581sp\u00f4sobi\u0165": 6247,
  "tar": 6248,
  "\u2581manufacture": 6249,
  "board": 6250,
  "\u2581participating": 6251,
  ",000": 6252,
  "\u2581zisti\u0165": 6253,
  "\u2581\u013eu\u010fmi": 6254,
  "\u2581aud\u00edtorov": 6255,
  "\u2581minister": 6256,
  "\u2581Ser": 6257,
  "\u2581firm": 6258,
  "\u2581musel": 6259,
  "\u2581processed": 6260,
  "\u2581Zoznam": 6261,
  "\u2581re\u017eim": 6262,
  ".5.": 6263,
  "\u2581DO": 6264,
  "\u2581z\u00e1kaz": 6265,
  "\u2581robot": 6266,
  "oh": 6267,
  "\u0161a": 6268,
  "ring": 6269,
  "\u2581consequences": 6270,
  "\u2581mesiace": 6271,
  "\u25812004.": 6272,
  "\u2581cap": 6273,
  "\u2581vyz\u00fdva": 6274,
  "\u2581\u010cas": 6275,
  "\u2581Cas": 6276,
  "\u2581cie\u013ea": 6277,
  "\u2581z\u00e1sad": 6278,
  "\u2581licences": 6279,
  "\u2581concentrations": 6280,
  "\u2581\u00fa\u010dinku": 6281,
  "COM": 6282,
  "\u2581d\u00f4vody": 6283,
  "\u2581argument": 6284,
  "\u2581Rules": 6285,
  "\u2581pension": 6286,
  "des": 6287,
  "\u2581vyhl\u00e1senia": 6288,
  "\u2581nemu": 6289,
  "lat": 6290,
  "\u2581z\u00e1hrad": 6291,
  "\u2581bl\u00edzko": 6292,
  "\u2581Bulgaria": 6293,
  "bel": 6294,
  "\u00edch": 6295,
  "\u2581CD": 6296,
  "\u2581raised": 6297,
  "\u2581supervisory": 6298,
  "\u2581rural": 6299,
  "\u2581zone": 6300,
  "\u2581increases": 6301,
  "\u2581understanding": 6302,
  "\u2581modr": 6303,
  "\u2581weather": 6304,
  "\u2581mlieka": 6305,
  "\u2581Day": 6306,
  "\u2581akt\u00edva": 6307,
  "\u2581spolupr\u00e1ca": 6308,
  "\u2581relevance": 6309,
  "\u00f3ri": 6310,
  "\u2581gun": 6311,
  "\u2581ko\u017ee": 6312,
  "\u2581CH": 6313,
  "\u2581predch\u00e1dzaj\u00face": 6314,
  "\u2581monitorovania": 6315,
  "EM": 6316,
  "\u2581kona\u0165": 6317,
  "EG": 6318,
  "\u2581Dia": 6319,
  "\u2581smernicu": 6320,
  "\u2581usmernenia": 6321,
  "\u2581zah\u0155\u0148a\u0165": 6322,
  "serv": 6323,
  "\u2581accompanied": 6324,
  "\u2581committed": 6325,
  "\u2581dvaja": 6326,
  "\u2581odpadu": 6327,
  "\u2581\u017eiadn": 6328,
  "\u2581t\u00fd\u017edne": 6329,
  "\u2581doplni\u0165": 6330,
  "py": 6331,
  "\u2581ton": 6332,
  "\u2581neither": 6333,
  "\u2581extension": 6334,
  "ieb": 6335,
  "\u2581planned": 6336,
  "\u2581inov\u00e1cie": 6337,
  "\u2581NCB": 6338,
  "\u2581uv\u00e1dzaj\u00fa": 6339,
  "\u2581excellent": 6340,
  "\u2581plyn": 6341,
  "nit": 6342,
  "\u2581\u00fazemia": 6343,
  "\u2581Anna": 6344,
  "\u2581NB": 6345,
  "\u2581banka": 6346,
  "\u2581vlastn\u00fdch": 6347,
  "\u2581smart": 6348,
  "\u2581vynikaj\u00fac": 6349,
  "\u2581useful": 6350,
  "\u2581d\u00f4kazy": 6351,
  "\u2581culture": 6352,
  "\u2581Pane": 6353,
  "\u2581v\u00fdskytu": 6354,
  "\u2581Cyprus": 6355,
  "stan": 6356,
  "\u2581kr": 6357,
  "\u2581datab\u00e1zy": 6358,
  "\u2581\u0161t\u00e1tnych": 6359,
  "ano": 6360,
  "\u2581pokroku": 6361,
  "le\u010dn": 6362,
  "\u2581Nechcem": 6363,
  "4%": 6364,
  "\u2581Hungary": 6365,
  "\u2581stanoviska": 6366,
  "\u2581Box": 6367,
  "\u258180%": 6368,
  "\u2581hate": 6369,
  "\u2581scar": 6370,
  "\u2581sight": 6371,
  "\u2581k\u00fape\u013e": 6372,
  "\u2581Today": 6373,
  "\u2581podmienkach": 6374,
  "\u2581EX": 6375,
  "l\u00e9": 6376,
  "tr\u00e1v": 6377,
  "\u2581title": 6378,
  "\u2581siln\u00fd": 6379,
  "\u25813.1": 6380,
  "\u2581N\u00e1zov": 6381,
  "\u25811992": 6382,
  "\u2581mutual": 6383,
  "\u2581outcome": 6384,
  "FI": 6385,
  "\u2581guarantees": 6386,
  "\u2581\u013dudia": 6387,
  "\u2581alive": 6388,
  "ie\u0165": 6389,
  "\u2581existuj\u00face": 6390,
  "\u2581feet": 6391,
  "\u2581pravidl\u00e1ch": 6392,
  "\u2581vytv\u00e1ra": 6393,
  "\u2581James": 6394,
  "\u2581transaction": 6395,
  "\u2581Eli": 6396,
  "\u2581svetlo": 6397,
  "\u2581Type": 6398,
  "\u2581pou\u017eije": 6399,
  "\u2581connected": 6400,
  "ord": 6401,
  "\u2581v\u00fdrobca": 6402,
  "p\u00fa\u0161\u0165a": 6403,
  "\u2581Ge": 6404,
  "\u2581cu": 6405,
  "\u2581ko\u013eko": 6406,
  "2013": 6407,
  "\u00e1\u017e": 6408,
  "\u2581vyroben\u00e9": 6409,
  "\u2581Com": 6410,
  "\u2581organiz\u00e1cia": 6411,
  "\u2581traditional": 6412,
  "\u2581\u00famrtia": 6413,
  "\u2581tro": 6414,
  "\u2581tonnes": 6415,
  "\u2581Nikto": 6416,
  "SP": 6417,
  "\u2581finally": 6418,
  "\u2581existence": 6419,
  "\u2581Non": 6420,
  "\u2581expoz\u00edcie": 6421,
  "\u2581m\u00e1lo": 6422,
  "1)": 6423,
  "ka\u0165": 6424,
  "\u2581zahrnut\u00e9": 6425,
  "\u2581deals": 6426,
  "\u2581typov\u00e9": 6427,
  "\u2581.\"": 6428,
  "\u2581cool": 6429,
  "\u25812015.": 6430,
  "\u2581arm": 6431,
  "\u2581classified": 6432,
  "\u2581va\u0161a": 6433,
  "fin": 6434,
  "\u2581facility": 6435,
  "pla": 6436,
  "\u2581stanovenie": 6437,
  "ej\u0161\u00ed": 6438,
  "\u2581renewable": 6439,
  "\u2581kombinovan": 6440,
  "rk": 6441,
  "\u2581blue": 6442,
  "de\u013e": 6443,
  "\u00fc": 6444,
  "\u2581kv\u00f3t": 6445,
  "\u2581\u010diasto\u010dne": 6446,
  "tla\u010d": 6447,
  "\u2581emission": 6448,
  "\u2581\u0161t\u00fdl": 6449,
  "\u2581prepare": 6450,
  "\u2581prijat\u00fdch": 6451,
  "\u2581began": 6452,
  "\u2581straight": 6453,
  "\u2581perform": 6454,
  "lit": 6455,
  "ele": 6456,
  "\u2581diel": 6457,
  "\u2581Appendix": 6458,
  "\u2581Jan": 6459,
  "\u2581Trade": 6460,
  "\u2581MEDICIN": 6461,
  "\u2581exist": 6462,
  "\u2581ved\u013eaj\u0161\u00ed": 6463,
  "\u2581n\u00e1stroja": 6464,
  "\u2581uvedenom": 6465,
  "\u2581koncentr\u00e1cie": 6466,
  "naj": 6467,
  "\u2581spolo\u010dn\u00fd": 6468,
  "\u2581hospod\u00e1rstvo": 6469,
  "loh": 6470,
  "\u2581stal": 6471,
  "rot": 6472,
  "\u2581zv\u00e1\u017ei\u0165": 6473,
  "gg": 6474,
  "\u2581krv": 6475,
  "\u2581Grand": 6476,
  "CFSP": 6477,
  "\u2581Vlastn": 6478,
  "nenie": 6479,
  "\u2581innovative": 6480,
  "ban": 6481,
  "\u2581Neu": 6482,
  "\u2581akci\u00ed": 6483,
  "\u2581pod\u00e1va\u0165": 6484,
  "62": 6485,
  "a\u010dn\u00fd": 6486,
  "\u2581Auto": 6487,
  "\u2581\u017diadne": 6488,
  "cent": 6489,
  "\u2581Van": 6490,
  "\u2581customer": 6491,
  "\u2581Novo": 6492,
  "\u2581transparent": 6493,
  "\u2581pr\u00edpravu": 6494,
  "artan": 6495,
  "\u2191": 6496,
  "\u2581opr\u00e1vnen\u00e9": 6497,
  "YCH": 6498,
  "IR": 6499,
  "\u2581multiple": 6500,
  "t\u00far": 6501,
  "\u2581nem": 6502,
  "\u2581certificates": 6503,
  "\u2581click": 6504,
  "\u2581managed": 6505,
  "\u2581Place": 6506,
  "\u2581zabi\u0165": 6507,
  "\u2581predlo\u017e\u00ed": 6508,
  "\u0438": 6509,
  "\u2581mo\u017enost\u00ed": 6510,
  "\u2581hereby": 6511,
  "ane": 6512,
  "\u2581ur\u010den\u00fd": 6513,
  "\u2581nejak": 6514,
  "nut\u00e9": 6515,
  "flu": 6516,
  "\u2581sama": 6517,
  "\u2581vz\u0165ahy": 6518,
  "\u2581organiz\u00e1cii": 6519,
  "\u2581obavy": 6520,
  "\u2581druh\u00e9ho": 6521,
  "\u2581prijali": 6522,
  "\u2581Ed": 6523,
  "\u2581GDP": 6524,
  "\u2581t\u00e9mu": 6525,
  "\u2581slobody": 6526,
  "\u2581views": 6527,
  "\u2581attack": 6528,
  "t\u00fd": 6529,
  "\u2581p\u00f4vodom": 6530,
  "\u2581stroj": 6531,
  "ux": 6532,
  "\u2581balenia": 6533,
  "\u2581declared": 6534,
  "\u2581inform\u00e1ciu": 6535,
  "anti": 6536,
  "\u2581fe": 6537,
  "SS": 6538,
  "\u2581needle": 6539,
  "\u2581hej": 6540,
  "\u2581sick": 6541,
  "\u2581stoj\u00ed": 6542,
  "sur": 6543,
  "2012": 6544,
  "stat": 6545,
  "\u2581vitro": 6546,
  "\u2581advance": 6547,
  "\u2581med": 6548,
  "\u2581do\u010dasn\u00e9": 6549,
  "\u2581sports": 6550,
  "\u2581\u010faleko": 6551,
  "\u2581DNA": 6552,
  "kl": 6553,
  "500": 6554,
  "mel": 6555,
  "fr": 6556,
  "\u2581University": 6557,
  "\u2581Denmark": 6558,
  "\u2581pou\u017eit\u00e9": 6559,
  "\u2581Thus": 6560,
  "\u2581medi": 6561,
  "uje\u0161": 6562,
  "\u2581regime": 6563,
  "\u2581Mac": 6564,
  "\u2581potrebujete": 6565,
  "sel": 6566,
  "5%": 6567,
  "\u2581najlep\u0161\u00ed": 6568,
  "\u2581dopravu": 6569,
  "\u2581humans": 6570,
  "\u2581Description": 6571,
  "82": 6572,
  "\u2581Typ": 6573,
  "t\u00edv": 6574,
  "tory": 6575,
  "\u2581Sweden": 6576,
  "ith": 6577,
  "\u2581pr\u00e1vny": 6578,
  "\u2581aims": 6579,
  "CC": 6580,
  "\u2581London": 6581,
  "\u2581older": 6582,
  "\u2581spotrebu": 6583,
  "\u2581pacienta": 6584,
  "\u2581subsequent": 6585,
  "\u2581Title": 6586,
  "\u2581trhom": 6587,
  "\u2581Um": 6588,
  "\u2581pr\u00edklad": 6589,
  "dom": 6590,
  "\u2581IX": 6591,
  "knite": 6592,
  "\u2581cycle": 6593,
  "\u2581vzoriek": 6594,
  "\u2581za\u010dat\u00ed": 6595,
  "\u2581bas": 6596,
  "\u2581catch": 6597,
  "\u2581robil": 6598,
  "ov\u00fdmi": 6599,
  "\u2581fields": 6600,
  "\u2581wall": 6601,
  "lice": 6602,
  "\u2581syst\u00e9mom": 6603,
  "\u2581v\u00fdsledkom": 6604,
  "\u2581mno\u017estva": 6605,
  "\u2581naz\u00fdva": 6606,
  "lam": 6607,
  "rup": 6608,
  "\u2581heating": 6609,
  "\u2581delivered": 6610,
  "\u2581granting": 6611,
  "\u2581sp\u013a\u0148aj\u00fa": 6612,
  "\u2581presk\u00famanie": 6613,
  "pul": 6614,
  "\u2581euroz\u00f3ny": 6615,
  "\u258183": 6616,
  "\u2581v\u00fd\u0161ky": 6617,
  "OL": 6618,
  "\u2581z\u00e1ujmov": 6619,
  "\u2581m\u00fadr": 6620,
  "\u2581parking": 6621,
  "\u2581podnikom": 6622,
  "\u2581hlad": 6623,
  "\u2581losses": 6624,
  "\u00edz": 6625,
  "rus": 6626,
  "raj": 6627,
  "\u2581Daniel": 6628,
  "\u2581specifications": 6629,
  "sla": 6630,
  "\u2581passenger": 6631,
  "\u2581rozhodol": 6632,
  ".4.": 6633,
  "beh": 6634,
  "\u2581dobe": 6635,
  "\u2581tuku": 6636,
  "\u2581PRO": 6637,
  "\u2581compatible": 6638,
  "\u2581eight": 6639,
  "\u2581OR": 6640,
  "vali": 6641,
  "\u2581v\u00e4\u010d\u0161ie": 6642,
  "\u2581Street": 6643,
  "\u2581choroby": 6644,
  "tick\u00fd": 6645,
  "\u2581dokonal": 6646,
  "oid": 6647,
  "\u2581Last": 6648,
  "ken": 6649,
  "\u2581deliver": 6650,
  "\u2581holder": 6651,
  "\u2581specifically": 6652,
  "\u2581retail": 6653,
  "UR": 6654,
  "\u2581Case": 6655,
  "\u2581Sir": 6656,
  "\u2581koniec": 6657,
  "nc": 6658,
  "bili": 6659,
  "ajte": 6660,
  "os\u0165ou": 6661,
  "\u0443": 6662,
  "\u2581vych\u00e1dza": 6663,
  "\u2581pripraven\u00fd": 6664,
  "\u2581r\u00fdb": 6665,
  "\u2581n\u00e1dej": 6666,
  "pil": 6667,
  "\u2581zabr\u00e1ni\u0165": 6668,
  "\u2581pozrie\u0165": 6669,
  "\u2581mo\u017en\u00fd": 6670,
  "nor": 6671,
  "\u2581Malta": 6672,
  "\u2581discuss": 6673,
  "\u2581church": 6674,
  "\u2581materi\u00e1ly": 6675,
  "o\u0161": 6676,
  "\u2581pr\u00edslu\u0161nej": 6677,
  "\u2581decreased": 6678,
  "\u2581posilnenie": 6679,
  "yslel": 6680,
  "\u2581postoj": 6681,
  "\u2581sever": 6682,
  "met": 6683,
  "\u2581pilot": 6684,
  "AC": 6685,
  "\u2581instance": 6686,
  "\u2581anymore": 6687,
  "ovanej": 6688,
  "100": 6689,
  "\u2581Sar": 6690,
  "\u2581award": 6691,
  "\u2581partnership": 6692,
  "LA": 6693,
  "\u2581S\u00fadne": 6694,
  "\u2581Poruch": 6695,
  "\u2581myslel": 6696,
  "\u2581remove": 6697,
  "\u2581zodpovedaj\u00facim": 6698,
  "\u2581z\u00e1va\u017en\u00e9": 6699,
  "\u2581creating": 6700,
  "/4": 6701,
  "\u2581osobn\u00e9": 6702,
  "www": 6703,
  "EF": 6704,
  "\u2581preparations": 6705,
  "k\u00fas": 6706,
  "\u2581god": 6707,
  "\u010dku": 6708,
  "napr\u00edklad": 6709,
  "\u2581mikro": 6710,
  "\u2581pripojenie": 6711,
  "\u2581remaining": 6712,
  "i\u010dka": 6713,
  "\u2581foto": 6714,
  "bol": 6715,
  "\u2581eur": 6716,
  "\u2581Son": 6717,
  "\u2581facts": 6718,
  ".2.": 6719,
  "DC": 6720,
  "\u2581v\u0161eobecn\u00e9ho": 6721,
  "\u25814.3": 6722,
  "nka": 6723,
  "\u2581\u0165a\u017eko": 6724,
  "af": 6725,
  "a\u010d": 6726,
  "\u2581Parlament": 6727,
  "\u2581m\u00e4sa": 6728,
  "2006": 6729,
  "\u2581notify": 6730,
  "\u2581stanoviskom": 6731,
  "\u2581hodnotou": 6732,
  "\u2581ochrana": 6733,
  "\u2581Lisabonsk": 6734,
  "\u2581pod\u00e1vanie": 6735,
  "\u2581platieb": 6736,
  "\u2581strach": 6737,
  "k\u00e9": 6738,
  "\u2581prev\u00e1dzkovate\u013e": 6739,
  "\u2581\u00faspech": 6740,
  "\u2581matka": 6741,
  "\u2581zvy\u0161uje": 6742,
  "\u2581slu\u017ebu": 6743,
  "\u2581p\u00e1ni": 6744,
  "\u2581Kedy": 6745,
  "\u2581findings": 6746,
  "\u2581celkov\u00fd": 6747,
  "\u2581kovov": 6748,
  "\u2581Single": 6749,
  "\u2581vybra\u0165": 6750,
  "\u2581zajtra": 6751,
  "\u2581povolen\u00e9": 6752,
  "\u2581telling": 6753,
  "\u25812%": 6754,
  "\u2581Make": 6755,
  "\u2581cohesion": 6756,
  "lez": 6757,
  "\u0161\u0165astie": 6758,
  "ickej": 6759,
  "where": 6760,
  "\u0161lo": 6761,
  "\u2581p\u00edsomne": 6762,
  "\u2581EIB": 6763,
  "\u2581Guidelines": 6764,
  "sad": 6765,
  "\u2581stress": 6766,
  "\u2581k\u013e\u00fa\u010dov\u00fd": 6767,
  "kur": 6768,
  "\u2581deemed": 6769,
  "how": 6770,
  "\u2581miss": 6771,
  "\u00e1\u017ene": 6772,
  "\u2581Contract": 6773,
  "\u2581prin\u00e1\u0161a": 6774,
  "\u2581rokovania": 6775,
  "\u2581vedel": 6776,
  "\u2581KOM": 6777,
  "\u2581kontexte": 6778,
  "\u2581menia": 6779,
  "\u2581zhody": 6780,
  "bran": 6781,
  "\u2581centrum": 6782,
  "\u2581challenge": 6783,
  "\u2581Port": 6784,
  ".19": 6785,
  "\u2581dodatku": 6786,
  "eri": 6787,
  "\u2581gener": 6788,
  "ther": 6789,
  "\u2581operate": 6790,
  "\u2581pull": 6791,
  "bot": 6792,
  "\u2581v\u00fdmeny": 6793,
  "\u2581preh\u013ead": 6794,
  "\u2581takom": 6795,
  "\u2581ski": 6796,
  "\u2581doh\u013ead": 6797,
  "\u2581collected": 6798,
  "\u2581dokumentov": 6799,
  "\u2581trhy": 6800,
  "\u2581DE": 6801,
  "\u2581jazyk": 6802,
  "\u2581restrictions": 6803,
  "\u2581nemala": 6804,
  "\u2581pack": 6805,
  "SI": 6806,
  "bus": 6807,
  "\u2581disposal": 6808,
  "\u2581beta": 6809,
  "2010": 6810,
  "\u00e1d": 6811,
  "\u2581flu": 6812,
  "\u2581goals": 6813,
  "\u2581dan\u00fd": 6814,
  "\u2581poskytovania": 6815,
  "\u2581vz\u00e1jomn": 6816,
  "\u2581OP": 6817,
  "\u00e1rne": 6818,
  "\u2581v\u00e4\u010d\u0161\u00ed": 6819,
  "\u2581vybaven\u00e9": 6820,
  "\u2581demonstrated": 6821,
  "\u2581organised": 6822,
  "\u2581vzduchu": 6823,
  "\u25813%": 6824,
  "\u2581Once": 6825,
  "\u2581dvora": 6826,
  "\u2581Madam": 6827,
  "\u2581pharmacist": 6828,
  "\u2581navrhnut\u00e9": 6829,
  "\u2581\u010dast\u00ed": 6830,
  "acienti": 6831,
  "\u2581tre": 6832,
  "\u2581--": 6833,
  "ella": 6834,
  "\u2581Och": 6835,
  "\u2581povinnost\u00ed": 6836,
  "\u2581respond": 6837,
  "\u25812.1": 6838,
  "mark": 6839,
  "\u2581injek\u010dn\u00fd": 6840,
  "\u2581capable": 6841,
  "\u2581consists": 6842,
  "\u2581\u0161peci\u00e1lne": 6843,
  "pres": 6844,
  "\u2581Island": 6845,
  "\u2581\u00fa\u010dastn\u00edkov": 6846,
  "\u2581Bas": 6847,
  "\u2581usual": 6848,
  "\u2581Which": 6849,
  "\u2581lays": 6850,
  "r\u00e1z": 6851,
  "xcuse": 6852,
  "EK": 6853,
  "pas": 6854,
  "\u25814.1": 6855,
  "\u2581standing": 6856,
  "\u2581bal": 6857,
  "\u2581eur\u00f3psky": 6858,
  "\u2581vision": 6859,
  "\u013eav": 6860,
  "\u2581efekt\u00edvne": 6861,
  "\u2581poda\u0165": 6862,
  "\u2581dovolenku": 6863,
  "\u2581spread": 6864,
  "\u2581mno\u017estv\u00e1": 6865,
  "\u2581n\u00e1zoru": 6866,
  "\u2581faj": 6867,
  "CR": 6868,
  "\u2581immediate": 6869,
  "\u2581nechcem": 6870,
  "\u2581jedlo": 6871,
  "\u2581Tre": 6872,
  "\u2581realize": 6873,
  "iro": 6874,
  "\u2581bolesti": 6875,
  "\u2581moved": 6876,
  "1%": 6877,
  "js\u0165": 6878,
  "\u2581\u00faprava": 6879,
  "\u2581V\u00fdsledky": 6880,
  "\u2581bathroom": 6881,
  "\u2581th": 6882,
  "\u2581inclusion": 6883,
  "\u2581klub": 6884,
  "\u2581garden": 6885,
  "kedy": 6886,
  "\u2581classification": 6887,
  "\u2581rich": 6888,
  "\u2581starostlivos\u0165": 6889,
  "\u258115%": 6890,
  "berg": 6891,
  "\u2581nem\u00e1m": 6892,
  "\u2581RN": 6893,
  "\u2581vypl\u00fdvaj\u00face": 6894,
  "\u2581foot": 6895,
  "\u2581Greek": 6896,
  "qua": 6897,
  "2018": 6898,
  "ati": 6899,
  "\u2581PRODUCT": 6900,
  "\u2581assist": 6901,
  "\u2581potrebujeme": 6902,
  "\u00e1vam": 6903,
  "\u2581Mu": 6904,
  "ations": 6905,
  "\u2581Bo\u017e\u00ed": 6906,
  "\u2581difficulties": 6907,
  "\u2581vozidlo": 6908,
  "v\u00ed": 6909,
  "\u2581chain": 6910,
  "zol": 6911,
  "\u2581press": 6912,
  "\u2581piatich": 6913,
  "\u2581poverty": 6914,
  "\u2581zne": 6915,
  "\u2581venova\u0165": 6916,
  "RP": 6917,
  "dl\u00e1": 6918,
  "daj": 6919,
  "\u2581kapitole": 6920,
  "\u2581schv\u00e1lenia": 6921,
  "\u2581(2),": 6922,
  "\u2581liekom": 6923,
  "\u2581zabil": 6924,
  "\u2581spent": 6925,
  "\u2581trhoch": 6926,
  "\u2581region\u00e1lnej": 6927,
  "\u2581Russian": 6928,
  "\u2581restaurant": 6929,
  "\u2581farmers": 6930,
  "\u2581predsedu": 6931,
  "0,000": 6932,
  "\u2581oproti": 6933,
  "\u2581element": 6934,
  "TS": 6935,
  "\u2581(1),": 6936,
  "\u2581to\u013eko": 6937,
  "skou": 6938,
  "\u2581Med": 6939,
  "\u2581meta": 6940,
  "\u2581lehoty": 6941,
  "\u2581miera": 6942,
  "\u2581turned": 6943,
  "\u2581dogs": 6944,
  "\u2581Mc": 6945,
  "\u2581Cal": 6946,
  "\u2581Spolu": 6947,
  "\u2581rodina": 6948,
  "\u2581boja": 6949,
  "\u2581majetku": 6950,
  "\u0148uj\u00fa": 6951,
  "\u2581structures": 6952,
  "\u2581Keb": 6953,
  "\u2581rail": 6954,
  "\u2581108": 6955,
  "\u2581pos\u00fadenia": 6956,
  "\u2581rovnak\u00fd": 6957,
  "\u2581Find": 6958,
  "\u2581nakoniec": 6959,
  "\u2581voda": 6960,
  "\u2581ne\u017eiaduce": 6961,
  "\u2581software": 6962,
  "kan": 6963,
  "\u2581zbra\u0148": 6964,
  "\u2581Parlamentu": 6965,
  "\u2581(5": 6966,
  "\u2581zost\u00e1va": 6967,
  "\u2581konan\u00ed": 6968,
  "LO": 6969,
  "\u2581Rights": 6970,
  "\u2581transakcie": 6971,
  "\u2581Ter": 6972,
  "\u2581LORD": 6973,
  "\u2581necha\u0165": 6974,
  "\u2581promise": 6975,
  "\u2581schopn\u00fd": 6976,
  "enej": 6977,
  "tek": 6978,
  "\u2581v\u00fdkonu": 6979,
  "\u2581certification": 6980,
  "\u2581regi\u00f3ne": 6981,
  "\u00e9ria": 6982,
  "\u2581b\u00fdval": 6983,
  "\u2581dobr\u00e1": 6984,
  "\u2581zd\u00f4raz\u0148uje": 6985,
  "\u2581Vol": 6986,
  "!\"": 6987,
  "\u2581drugs": 6988,
  "\u2581presk\u00famania": 6989,
  "\u2581confidence": 6990,
  "\u2581vysok\u00e9": 6991,
  "].": 6992,
  "\u2581shoot": 6993,
  "\u2581zeme": 6994,
  "\u2581happens": 6995,
  "\u2581kraj": 6996,
  "r\u00e1n": 6997,
  "\u2581Bob": 6998,
  "2002": 6999,
  "\u2581v\u00edta": 7000,
  "j\u00facich": 7001,
  "\u258197": 7002,
  "\u2581tourism": 7003,
  "\u2581ak\u00fdko\u013evek": 7004,
  "\u2581environment\u00e1lne": 7005,
  "\u2581justified": 7006,
  "\u2581administrat\u00edvne": 7007,
  "\u2581gener\u00e1lny": 7008,
  "\u2581in\u0161tit\u00facia": 7009,
  "\u2581pregnancy": 7010,
  "\u2581participants": 7011,
  "\u2581coln": 7012,
  "\u2581ve\u013ekej": 7013,
  "\u2581\u0161t\u00fadia": 7014,
  "\u2581v\u00fdrobe": 7015,
  "\u2581prispie\u0165": 7016,
  "l\u00edn": 7017,
  "\u2581\u017eiadost\u00ed": 7018,
  "\u2581soci\u00e1lny": 7019,
  "\u2581b\u00e1nk": 7020,
  "\u2581(7)": 7021,
  "rit": 7022,
  "\u2581justice": 7023,
  "\u25817,": 7024,
  "\u258199": 7025,
  "\u2581vieme": 7026,
  "platn": 7027,
  "\u2581storo\u010dia": 7028,
  "\u2581v\u00fdmenu": 7029,
  "\u2581organic": 7030,
  "\u2581clearance": 7031,
  "\u2581protein": 7032,
  "\u2581pros": 7033,
  "mas": 7034,
  "\u2581prv\u00fdch": 7035,
  "\u2581nutn\u00e9": 7036,
  "\u2581predpis": 7037,
  "sol": 7038,
  "\u2581\u017eiada": 7039,
  "\u2581discussion": 7040,
  "\u2581jedin\u00fd": 7041,
  "\u2581k\u00fapi\u0165": 7042,
  "\u2581tvoji": 7043,
  "\u2581everybody": 7044,
  "ey": 7045,
  "\u2581nezah\u0155\u0148a": 7046,
  "\u2581popul\u00e1cie": 7047,
  "koch": 7048,
  "ign": 7049,
  "\u2581piece": 7050,
  "tud": 7051,
  "\u2581subjektu": 7052,
  "\u2581concrete": 7053,
  "Je": 7054,
  "bezpe\u010d": 7055,
  "\u2581politick\u00fdch": 7056,
  "\u2581odtia\u013eto": 7057,
  "aza": 7058,
  "\u2581pou\u017e\u00edvan\u00e9": 7059,
  "\u258140%": 7060,
  "\u2581providers": 7061,
  "\u2581vol": 7062,
  "\u2581load": 7063,
  "\u2581produktu": 7064,
  "\u2581zamestnanos\u0165": 7065,
  "\u2581format": 7066,
  "\u2581asking": 7067,
  "\u2581dostupn\u00fdch": 7068,
  "\u2581soul": 7069,
  "\u2581taste": 7070,
  "z\u00f3n": 7071,
  "\u2581platn\u00e9": 7072,
  "\u2581poplatkov": 7073,
  "\u2581poskytnut\u00e9": 7074,
  "\u2581Cla": 7075,
  "ization": 7076,
  "non": 7077,
  "\u2581hodnoten\u00ed": 7078,
  "\u2581obchode": 7079,
  "/100": 7080,
  "\u2581reflect": 7081,
  "iace": 7082,
  "\u2581properly": 7083,
  "\u2581formal": 7084,
  "5.": 7085,
  "\u2581dome": 7086,
  "\u2581Spolo\u010denstve": 7087,
  "\u2581Obr\u00e1zok": 7088,
  "pusti\u0165": 7089,
  "\u2581efficacy": 7090,
  "\u2581star\u0161\u00edch": 7091,
  "\u2581Nem\u00f4\u017ee": 7092,
  "\u2581copy": 7093,
  "\u2581generation": 7094,
  "\u2581regula\u010dn\u00e9": 7095,
  "\u2581grow": 7096,
  "\u2581v\u00fdrobcovia": 7097,
  "\u2581accession": 7098,
  "\u2581osobe": 7099,
  "\u2581p\u00f4dy": 7100,
  "\u2581prispieva": 7101,
  "\u2581driver": 7102,
  "\u2581expect": 7103,
  "\u2581m\u00e4so": 7104,
  "\u2581Public": 7105,
  "\u2581vn\u00fatro\u0161t\u00e1tnej": 7106,
  "\u2581route": 7107,
  "\u2581Er": 7108,
  "rast": 7109,
  "\u2581column": 7110,
  "friend": 7111,
  "ette": 7112,
  "stre": 7113,
  "mohol": 7114,
  "\u2581svalov": 7115,
  "\u2581quotas": 7116,
  "\u2581zl\u00fd": 7117,
  "\u2581podstate": 7118,
  "\u2581pravidlami": 7119,
  "making": 7120,
  "\u2581chceme": 7121,
  "\u2581diabetes": 7122,
  "\u2581relevantn\u00e9": 7123,
  "itis": 7124,
  "\u2581Finland": 7125,
  "KA": 7126,
  "\u2581Miesto": 7127,
  "\u2581hriech": 7128,
  "\u2581ban": 7129,
  "\u2581farm": 7130,
  "hna": 7131,
  "\u2581Transport": 7132,
  "\u2581assigned": 7133,
  "\u2581zavedenie": 7134,
  "\u2581previously": 7135,
  "wood": 7136,
  "\u00ednom": 7137,
  "4.": 7138,
  "\u2581Izrael": 7139,
  "\u2581offering": 7140,
  "\u2581pobytu": 7141,
  "ira": 7142,
  "\u2581priate\u013eom": 7143,
  "\u2581papiere": 7144,
  "ists": 7145,
  "\u010das": 7146,
  "\u2581hr\u00e1": 7147,
  "\u2581ihne\u010f": 7148,
  "iaci": 7149,
  "\u2581latter": 7150,
  "\u2581Hospodin": 7151,
  "lot": 7152,
  "\u2581MT": 7153,
  "\u2581ak\u00e9hoko\u013evek": 7154,
  "\u2581zdravotn": 7155,
  "\u2581score": 7156,
  "\u2581extend": 7157,
  "\u2581pr\u00e1vomoc": 7158,
  "\u2581Room": 7159,
  "\u2581Dobr\u00fd": 7160,
  "\u2581Network": 7161,
  "\u2581opinions": 7162,
  "\u2581s\u00fa\u010dasti": 7163,
  "\u2581T\u00e1": 7164,
  "\u2581okol\u00ed": 7165,
  "\u2581ve\u013ek\u00fa": 7166,
  "\u2581(10": 7167,
  "\u2581CI": 7168,
  "\u2581identity": 7169,
  "\u2581spotreby": 7170,
  "ida": 7171,
  "\u2581residence": 7172,
  "\u2581[4]": 7173,
  "\u2581ostatn\u00fdmi": 7174,
  "\u2581Rob": 7175,
  "\u2581informuje": 7176,
  "\u2581dvoma": 7177,
  "last": 7178,
  "\u2581maintained": 7179,
  "\u2581fil": 7180,
  "\u2581invited": 7181,
  "\u2581ve\u013ekos\u0165": 7182,
  "\u2581Cap": 7183,
  "\u2581Open": 7184,
  "\u25811.2": 7185,
  "\u2581pr\u00e1vnymi": 7186,
  "\u2581postupne": 7187,
  "\u2581Mary": 7188,
  "\u2581covering": 7189,
  "\u2581zabezpe\u010dia": 7190,
  "ME": 7191,
  "\u25811.5": 7192,
  "VO": 7193,
  "j\u00face": 7194,
  "\u2581youth": 7195,
  "\u2581race": 7196,
  "lah": 7197,
  "mal": 7198,
  "\u2581zmysel": 7199,
  "\u2581polo\u017eiek": 7200,
  "%)": 7201,
  "\u2581mandate": 7202,
  "\u010dn\u00e1": 7203,
  "nis": 7204,
  "\u2581\u0165a\u017ekosti": 7205,
  "\u2581\u017eiadnu": 7206,
  "ake": 7207,
  "eta": 7208,
  "\u2581elektrickej": 7209,
  "nat": 7210,
  "ci\u00ed": 7211,
  "ett": 7212,
  "\u2581delegated": 7213,
  "bis": 7214,
  "\u25812015,": 7215,
  "\u2581politick\u00e9": 7216,
  "ches": 7217,
  "Pro": 7218,
  "\u2581spend": 7219,
  "\u2581(4": 7220,
  "\u2581osved\u010denia": 7221,
  "dor": 7222,
  "taneous": 7223,
  "\u2581evening": 7224,
  "ures": 7225,
  "\u2581jednotn\u00fd": 7226,
  "\u2581strengthening": 7227,
  "\u2581task": 7228,
  "bo\u017e": 7229,
  "\u2581povolen\u00ed": 7230,
  "\u2581lep\u0161\u00ed": 7231,
  "\u2581pr\u00e1vom": 7232,
  "\u2581Chorv\u00e1tsko": 7233,
  "\u2581110": 7234,
  "\u2581S\u00fadny": 7235,
  "\u2581hmotnos\u0165ou": 7236,
  "\u2581exports": 7237,
  "\u2581neexistuje": 7238,
  "\u2581berie": 7239,
  "\u2581desa\u0165": 7240,
  "\u2581celkov\u00e9": 7241,
  "\u2581\u010doho": 7242,
  "ben": 7243,
  "\u2581objemu": 7244,
  "\u00f3d": 7245,
  "\u2581exemption": 7246,
  "\u2581Nemal": 7247,
  "\u2581cities": 7248,
  "\u2581YOU": 7249,
  "\u2581output": 7250,
  "\u2581navz\u00e1jom": 7251,
  "\u2581lay": 7252,
  "\u2581po\u017eadovan\u00e9": 7253,
  "\u2581uvedenie": 7254,
  "\u2581buniek": 7255,
  "\u2581awareness": 7256,
  "\u2581pr\u00ednos": 7257,
  "ergic": 7258,
  "\u2581Del": 7259,
  "\u2581machinery": 7260,
  "back": 7261,
  "\u2581na\u0161iel": 7262,
  "rik": 7263,
  "inib": 7264,
  "\u2581Tie": 7265,
  "\u2581normally": 7266,
  "\u2581odpor": 7267,
  "\u2581lod\u00ed": 7268,
  "eng": 7269,
  "\u2581guidance": 7270,
  "\u2581drop": 7271,
  "\u2581borders": 7272,
  "\u2581poz\u00edcie": 7273,
  "\u2581congregation": 7274,
  "\u2581models": 7275,
  "\u2581yours": 7276,
  "\u2581strom": 7277,
  "\u2581experienced": 7278,
  "\u2581Ya": 7279,
  "\u2581prv\u00e1": 7280,
  "\u0148u": 7281,
  "\u2581hlasovania": 7282,
  "\u2581neust\u00e1le": 7283,
  "\u2581wrote": 7284,
  "neho": 7285,
  "\u2581nov\u00e1": 7286,
  "PR": 7287,
  "gli": 7288,
  "EPAR": 7289,
  "\u2581signal": 7290,
  "\u2581trial": 7291,
  "\u2581hearing": 7292,
  "It": 7293,
  "ric": 7294,
  "\u2581investi\u010dn\u00fd": 7295,
  "TI": 7296,
  "\u2581podobn\u00fdch": 7297,
  "\u2581In\u00e9": 7298,
  "\u2581priestore": 7299,
  "i\u010dky": 7300,
  "\u2581posledn\u00fd": 7301,
  "\u2581minim\u00e1lny": 7302,
  "ern": 7303,
  "\u2581represent": 7304,
  "\u2581spojen\u00ed": 7305,
  "\u2581asset": 7306,
  "\u2581podania": 7307,
  "mod": 7308,
  "\u2581update": 7309,
  "\u2581path": 7310,
  "\u2581ist\u00e1": 7311,
  "\u2581zn\u00ed\u017eenia": 7312,
  "\u2581Pharma": 7313,
  "\u2581requests": 7314,
  "ator": 7315,
  "\u2581investor": 7316,
  "\u2581hovoria": 7317,
  "\u2581Fi": 7318,
  "\u2581passengers": 7319,
  "\u2581situated": 7320,
  "\u2581Technical": 7321,
  "\u00ef": 7322,
  "cami": 7323,
  "ril": 7324,
  "\u2581(6": 7325,
  "\u2581dimension": 7326,
  "\u2581Mm": 7327,
  "\u2581vonku": 7328,
  "\u2581138": 7329,
  "\u2581n\u00e1rodnej": 7330,
  "\u2581zas": 7331,
  "\u2581master": 7332,
  "\u2581secret": 7333,
  "\u2581installation": 7334,
  "\u2581regularly": 7335,
  ".';": 7336,
  "\u2581Nov\u00e9": 7337,
  "schopnos\u0165": 7338,
  "\u2581niektor\u00ed": 7339,
  "osla\u0165": 7340,
  "kop": 7341,
  "\u2581n\u00e1rodov": 7342,
  "\u2581Turkey": 7343,
  "\u2581vyv\u00e1\u017eaj\u00faci": 7344,
  "\u2581Brusel": 7345,
  "\u2581technickej": 7346,
  "\u2581fu": 7347,
  "\u2581Class": 7348,
  "\u2581calling": 7349,
  "\u2581warm": 7350,
  "\u2581po\u010dul": 7351,
  "\u2581namely": 7352,
  "\u2581solid": 7353,
  "\u2581zalo\u017een\u00fd": 7354,
  "\u2581cheap": 7355,
  "icky": 7356,
  "\u2581\u0161\u0165astn": 7357,
  "\u2581ro\u010dne": 7358,
  "\u2581mesiaca": 7359,
  "\u2581samo": 7360,
  "\u2581Vi": 7361,
  "ekt": 7362,
  "OU": 7363,
  "\u2581carefully": 7364,
  "\u2581largest": 7365,
  "\u2581sections": 7366,
  "\u2581Kat": 7367,
  "\u2581dostato\u010dn\u00e9": 7368,
  "\u2581m\u0155tvy": 7369,
  "\u2581finan\u010dn\u00fd": 7370,
  "\u2581samostatne": 7371,
  "\u2581pracovn\u00fd": 7372,
  "\u2581prescribed": 7373,
  "\u2581potrebn\u00fd": 7374,
  "\u2581sexual": 7375,
  "\u2581[3],": 7376,
  "\u2581cit": 7377,
  "PS": 7378,
  "slu": 7379,
  "ivo": 7380,
  "\u2581pou\u017e\u00edvan\u00ed": 7381,
  "\u2581vlastn\u00e9ho": 7382,
  "\u2581rodi\u010dia": 7383,
  "\u2581zozname": 7384,
  "\u2581Vie": 7385,
  "\u2581appeal": 7386,
  "\u2581critical": 7387,
  "\u2581substantial": 7388,
  "\u2581dial\u00f3g": 7389,
  "\u2581Direct": 7390,
  "\u2581ideal": 7391,
  "\u2581examined": 7392,
  "c\u00ed": 7393,
  "\u2581square": 7394,
  "zdrav": 7395,
  "RU": 7396,
  "\u2581Hr": 7397,
  "v\u00e4z": 7398,
  "\u0161k": 7399,
  "\u2581association": 7400,
  "\u2581kateg\u00f3ri\u00ed": 7401,
  "ved": 7402,
  "\u2581boys": 7403,
  "\u2581variety": 7404,
  "\u2581Family": 7405,
  "\u2581pripom\u00edna": 7406,
  "\u2581da\u0148": 7407,
  "\u2581dlh\u0161ie": 7408,
  "\u2581mnoh\u00e9": 7409,
  "\u2581documentation": 7410,
  "\u2581ve\u013ek\u00fdch": 7411,
  "\u2581Vira": 7412,
  "pra": 7413,
  "\u2581bezpe\u010dnostn\u00fdch": 7414,
  "rol": 7415,
  "\u2581Po\u010dul": 7416,
  "\u2581begin": 7417,
  "\u2581z\u00e1pal": 7418,
  "tky": 7419,
  "\u25815.1": 7420,
  "\u2581mysl\u00edte": 7421,
  "\u2581www": 7422,
  "\u2581concept": 7423,
  "\u2581s\u00faladu": 7424,
  "bie": 7425,
  "\u2581Games": 7426,
  "\u2581Roman": 7427,
  "\u2581dumping": 7428,
  "\u2581beneficiary": 7429,
  "an\u00e9": 7430,
  "\u2581sektor": 7431,
  "\u2581Organisation": 7432,
  "\u2581suggest": 7433,
  "stran": 7434,
  "\u00f3l": 7435,
  "\u2581vol\u00e1": 7436,
  "\u2581prove": 7437,
  "\u2581v\u00fdhod": 7438,
  "ove": 7439,
  "\u2581h\u013ead\u00e1": 7440,
  "\u2581prvkov": 7441,
  "\u2581gold": 7442,
  "\u2581stra": 7443,
  "interoperability": 7444,
  "\u2581vlasy": 7445,
  "\u2581Put": 7446,
  "dli": 7447,
  "\u2581v\u00fdh\u013ead": 7448,
  "\u2581Stu": 7449,
  "\u2581podpore": 7450,
  "\u2581prijal": 7451,
  "\u2581measurement": 7452,
  "\u2581Job": 7453,
  "ymi": 7454,
  "\u2581v\u00e4\u010d\u0161iu": 7455,
  "\u25812.2": 7456,
  "\u2581liability": 7457,
  "gener": 7458,
  "\u00ddCH": 7459,
  "\u2581Angel": 7460,
  "\u2581Us": 7461,
  "\u2581amend": 7462,
  "\u2581dinner": 7463,
  "bo\u017ee": 7464,
  "\u2581Sure": 7465,
  "lub": 7466,
  "\u2581Bu\u010f": 7467,
  "\u2581dom\u00e1ce": 7468,
  "\u25813.2": 7469,
  "\";": 7470,
  "dlo": 7471,
  "\u2581supplied": 7472,
  "\u2581mili\u00f3na": 7473,
  "lanza": 7474,
  "&": 7475,
  "\u2581appointed": 7476,
  "\u2581missing": 7477,
  "\u2581Moj": 7478,
  "\u2581technological": 7479,
  "\u2581vaccine": 7480,
  "\u2581zmluvn\u00e9": 7481,
  "lo\u017ei\u0165": 7482,
  "\u2581session": 7483,
  "l\u00e1m": 7484,
  "tter": 7485,
  "\u2581interval": 7486,
  "cul": 7487,
  "\u2581bodom": 7488,
  "\u2581doubt": 7489,
  "\u2581plnenie": 7490,
  "\u017eia": 7491,
  "\u2581cenn\u00e9": 7492,
  "\u2581handling": 7493,
  "vanie": 7494,
  "al\u00f3": 7495,
  "\u2581potrebuj\u00fa": 7496,
  "\u2581poviem": 7497,
  "\u2581George": 7498,
  "\u2581jednotn\u00e9ho": 7499,
  "\u25811993": 7500,
  "We": 7501,
  "oni": 7502,
  "\u2581potrebova\u0165": 7503,
  "p\u00edsa\u0165": 7504,
  "\u2581allowing": 7505,
  "col": 7506,
  "vers": 7507,
  "\u2581determination": 7508,
  "\u2581koho": 7509,
  "\u2581liquid": 7510,
  "fil": 7511,
  "\u2581sumu": 7512,
  "4)": 7513,
  "\u2581\u00dadaje": 7514,
  "oxy": 7515,
  "\u2581explained": 7516,
  "zv": 7517,
  "-4-": 7518,
  "\u2581Ona": 7519,
  "\u2581ur\u010dit": 7520,
  "\u2581Prices": 7521,
  "\u2581Nations": 7522,
  "\u2581\u010dasopis": 7523,
  "\u2581removed": 7524,
  "ccommodat": 7525,
  "\u2581Jedna": 7526,
  "\u2581hranice": 7527,
  "\u2581vital": 7528,
  "\u2581dates": 7529,
  "\u2581\u010fal\u0161ieho": 7530,
  "\u2581firmy": 7531,
  "\u00e1ria": 7532,
  "\u2581predpoklad\u00e1": 7533,
  "\u2581president": 7534,
  "\u2581\u010dl\u00e1nkoch": 7535,
  "\u2581menu": 7536,
  "lis": 7537,
  "\u2581clients": 7538,
  "\u2581appears": 7539,
  "che": 7540,
  "\u2581n\u00e1rast": 7541,
  "\u2581Comp": 7542,
  "\u2581presk\u00fama\u0165": 7543,
  "\u2581sk\u00fasenost\u00ed": 7544,
  "izmus": 7545,
  "\u2581oper\u00e1ci\u00ed": 7546,
  "\u2581statements": 7547,
  "\u2581nev": 7548,
  "\u2581votes": 7549,
  "p\u00e4t": 7550,
  "\u2581records": 7551,
  "\u2581hepati": 7552,
  "\u2581chosen": 7553,
  "\u2581jednotka": 7554,
  "\u2581bus": 7555,
  "\u2581inom": 7556,
  "Tie\u017e": 7557,
  "\u010d\u00edm": 7558,
  "Script": 7559,
  "\u2581fi": 7560,
  "\u2581zist\u00ed": 7561,
  "latko": 7562,
  "\u2581rez": 7563,
  "\u2581tvoria": 7564,
  "\u2581va\u0161om": 7565,
  "\u2581Kan": 7566,
  "ney": 7567,
  "\u2581Dr\u017e": 7568,
  "\u2581y": 7569,
  "\u2581od\u00f4vodnen\u00ed": 7570,
  "\u2581chr\u00e1ni\u0165": 7571,
  "room": 7572,
  "\u2581Teda": 7573,
  "\u2581\u00fa\u010dtov": 7574,
  "ill": 7575,
  "\u2581pharmacokinetic": 7576,
  "\u2581DECISION": 7577,
  "\u2581ur\u010den\u00e1": 7578,
  "\u2581author": 7579,
  "\u2581Three": 7580,
  "\u2581dostala": 7581,
  "\u2581Gues": 7582,
  "\u2581po\u010fakova": 7583,
  "razil": 7584,
  "\u2581finan\u010dn\u00fa": 7585,
  "act": 7586,
  "\u2581skupinu": 7587,
  "rix": 7588,
  ",5": 7589,
  "\u2581povzbud": 7590,
  "\u2581gr": 7591,
  "verz": 7592,
  "\u2581discussed": 7593,
  "\u2581zber": 7594,
  "liv": 7595,
  "\u2581pekne": 7596,
  "\u2581doby": 7597,
  "enz": 7598,
  "\u2581iniciat\u00edv": 7599,
  "\u2581Ko\u013eko": 7600,
  "\u2581M\u00f4\u017eeme": 7601,
  "gle": 7602,
  "iah": 7603,
  "\u2581Host": 7604,
  "\u2581monetary": 7605,
  "\u2581transferred": 7606,
  "\u2581teplote": 7607,
  "\u2581platnos\u0165": 7608,
  "\u2581crucial": 7609,
  "\u2581fiscal": 7610,
  "\u2581plastic": 7611,
  "\u2581postavenie": 7612,
  "Pa": 7613,
  "\u2581Annexes": 7614,
  "\u2581permit": 7615,
  "\u2581prieskum": 7616,
  "\u2581Kre": 7617,
  "\u2581huge": 7618,
  "/5": 7619,
  "\u2581Nez": 7620,
  "\u2581broken": 7621,
  "ess": 7622,
  "De": 7623,
  "\u2581grand": 7624,
  "\u2581supplement": 7625,
  "\u2581street": 7626,
  "ore": 7627,
  "\u2581Water": 7628,
  "\u2581\u00fa\u010dinnej": 7629,
  "\u2581core": 7630,
  "\u2581summary": 7631,
  "tzv": 7632,
  "\u2581vys": 7633,
  "\u2581CHAPTER": 7634,
  "\u2581express": 7635,
  "\u2581strategies": 7636,
  "\u2581Fo": 7637,
  "\u2581fell": 7638,
  "\u2581nadobudnutia": 7639,
  "\u2581MARKETING": 7640,
  "\u2581underlying": 7641,
  "\u2581dreva": 7642,
  "\u2581centr\u00e1lnej": 7643,
  "\u2581Life": 7644,
  "2000": 7645,
  "\u2581Also": 7646,
  "\u010denie": 7647,
  "\u2581stable": 7648,
  "\u2581rozumie": 7649,
  "\u2581looked": 7650,
  "jdite": 7651,
  "\u2581na\u0161li": 7652,
  "\u2581answers": 7653,
  "TU": 7654,
  "\u2581pekla": 7655,
  "\u2581sin": 7656,
  "\u2581chceli": 7657,
  "\u2581dark": 7658,
  "\u2581spravi\u0165": 7659,
  "\u2581murder": 7660,
  "\u2581EFSA": 7661,
  "\u2581ak\u00fdchko\u013evek": 7662,
  "\u2581procese": 7663,
  "\u2581monitored": 7664,
  "\u2581roztoku": 7665,
  "CS": 7666,
  "\u2581margin": 7667,
  "\u2581liabilities": 7668,
  "t\u00f3n": 7669,
  "\u2581desire": 7670,
  "\u2581helps": 7671,
  "\u2581Was": 7672,
  "\u2581bottle": 7673,
  "car": 7674,
  "\u2581mixed": 7675,
  "v\u00edz": 7676,
  "\u2581Support": 7677,
  "any": 7678,
  "\u2581excluded": 7679,
  "AG": 7680,
  "\u2581funguje": 7681,
  "\u2581mierne": 7682,
  "\u2581CON": 7683,
  "\u2581communications": 7684,
  "\u25818,": 7685,
  "NI": 7686,
  "ico": 7687,
  "ves": 7688,
  "\u25812006/": 7689,
  "\u2581violence": 7690,
  "\u2581bezpe\u010dn\u00e9": 7691,
  "\u2581soli": 7692,
  "\u2581pot": 7693,
  "\u2581derived": 7694,
  "\u2581spp": 7695,
  "\u2581nechal": 7696,
  "\u2581spojen\u00fdch": 7697,
  "\u2581oxid": 7698,
  "\u2581po\u017eiadavka": 7699,
  "\u2581el": 7700,
  "\u2581nevidel": 7701,
  "\u2581Presidency": 7702,
  "\u2581liekmi": 7703,
  "\u2581[2].": 7704,
  "\u2581Control": 7705,
  "\u2581quiet": 7706,
  "\u2581fulfil": 7707,
  "iel": 7708,
  "\u2581Var": 7709,
  "\u2581z\u00e1v\u00e4zok": 7710,
  "nej\u0161\u00ed": 7711,
  "\u2581Poloha": 7712,
  "\u2581supports": 7713,
  "ford": 7714,
  "\u2581expiry": 7715,
  "\u2581rie\u0161en\u00ed": 7716,
  "\u2581adresa": 7717,
  "AUC": 7718,
  "\u2581COMMUNITIES": 7719,
  "\u2581Ren": 7720,
  "\u2581comparison": 7721,
  "\u2581object": 7722,
  "\u2581silu": 7723,
  "\u2581v\u00fdraz": 7724,
  "\u2581bla": 7725,
  "try": 7726,
  "\u2581Blue": 7727,
  "\u2581presentation": 7728,
  "\u00f4d": 7729,
  "-3-": 7730,
  "\u2581invitation": 7731,
  "\u2581konzult\u00e1cie": 7732,
  "\u2581v\u00edna": 7733,
  "\u2581Matt": 7734,
  "\u2581hodinu": 7735,
  "\u2581Bor": 7736,
  "\u2581obyvate\u013eov": 7737,
  "\u2581Para": 7738,
  "\u2581miestnych": 7739,
  "\u2581fungovanie": 7740,
  "\u2581Navy\u0161e": 7741,
  "ike": 7742,
  "c\u00edn": 7743,
  "ista": 7744,
  "\u2581dol\u00e1rov": 7745,
  "\u2581Year": 7746,
  "dis": 7747,
  "\u2581parameters": 7748,
  "\u2581sna\u017e\u00ed": 7749,
  "\u2581s\u00fadu": 7750,
  "\u2581background": 7751,
  "\u2581odhad": 7752,
  "ants": 7753,
  "\u2581Nem\u00e1": 7754,
  "\u2581illegal": 7755,
  "\u2581Earth": 7756,
  "\u2581dream": 7757,
  "ara": 7758,
  "\u2581povedali": 7759,
  "\u2581sitting": 7760,
  "ces": 7761,
  "st\u00e1v": 7762,
  "\u2581zabezpe\u010duje": 7763,
  "\u2581governments": 7764,
  "\u2581uskuto\u010dni\u0165": 7765,
  "\u2581SPOLO\u010cENSTIEV": 7766,
  "\u2581Animal": 7767,
  "\u2581pure": 7768,
  "\u2581AG": 7769,
  "\u2581Agriculture": 7770,
  "\u2581r\u00fdchlos\u0165": 7771,
  "\u2581Protection": 7772,
  "\u2581Directives": 7773,
  "\u2581z\u00e1very": 7774,
  "\u2581quick": 7775,
  "\u0439": 7776,
  "\u2581kr\u00e1\u013eovstva": 7777,
  "DI": 7778,
  "\u2581studied": 7779,
  "pos": 7780,
  "\u2581coln\u00e9": 7781,
  "\u017eil": 7782,
  "\u2581teaching": 7783,
  "\u2581Access": 7784,
  "\u2581syna": 7785,
  "\u2581s\u013eub": 7786,
  "\u2581flexibility": 7787,
  "\u2581udr\u017eate\u013en\u00e9ho": 7788,
  "2%": 7789,
  "\u2581rozpore": 7790,
  "\u2581vid\u00edm": 7791,
  "ee": 7792,
  "l\u00e1t": 7793,
  "\u2581er": 7794,
  "\u2581\u00dania": 7795,
  "verything": 7796,
  "\u0148ov": 7797,
  "\u2581odstr\u00e1ni\u0165": 7798,
  "\u2581543/2011": 7799,
  "\u2581av\u0161ak": 7800,
  "\u2581helped": 7801,
  "\u2581kr\u00e1\u013e": 7802,
  "\u2581aren": 7803,
  "\u2581virus": 7804,
  "hne": 7805,
  "vent": 7806,
  "\u2581Dam": 7807,
  "\u2581pozna": 7808,
  "\u2581migration": 7809,
  "\u2581in\u00e1": 7810,
  "it\u00edda": 7811,
  "\u2581Radu": 7812,
  "Celkov\u00e9": 7813,
  "\u2581cars": 7814,
  "\u2581Nechce": 7815,
  "\u2581examine": 7816,
  "\u2581ships": 7817,
  "\u2581bud\u00facnos\u0165": 7818,
  "ville": 7819,
  "\u2581telesn": 7820,
  "hr\u00e1va": 7821,
  "ique": 7822,
  "\u2581slovami": 7823,
  "\u2581TSI": 7824,
  "ward": 7825,
  "\u2581\u0161trukt\u00fary": 7826,
  "\u2581papier": 7827,
  "\u2581achiev": 7828,
  "\u2581manage": 7829,
  "\u2581Bur": 7830,
  "\u2581z\u00e1ujmy": 7831,
  "k\u00fap": 7832,
  "\u2581seed": 7833,
  "\u2581proof": 7834,
  "ification": 7835,
  "\u2581knowing": 7836,
  "\u2581conflict": 7837,
  "\u2581indeed": 7838,
  "\u2581links": 7839,
  "\u2581\u010doko\u013evek": 7840,
  "\u2581Fre": 7841,
  "5)": 7842,
  "\u2581arising": 7843,
  "\u2581Given": 7844,
  "\u2581causes": 7845,
  "\u2581osobn": 7846,
  "\u2581osobu": 7847,
  "III": 7848,
  "methyl": 7849,
  "hli": 7850,
  "\u2581potenci\u00e1lne": 7851,
  "\u2581Kli": 7852,
  "\u2581comparable": 7853,
  "far": 7854,
  "\u2581vode": 7855,
  "\u2581JE": 7856,
  "\u2581mode": 7857,
  "\u2581obstar\u00e1vania": 7858,
  "\u2581dovolen": 7859,
  "\u2581indication": 7860,
  "ej\u0161\u00edch": 7861,
  "\u03b1": 7862,
  "\u2581covers": 7863,
  "\u2581tak\u00fdto": 7864,
  "\u2581forest": 7865,
  "\u2581Nor": 7866,
  "LI": 7867,
  "\u258190%": 7868,
  "\u2581block": 7869,
  "\u2581samples": 7870,
  "\u2581p\u00f4vod": 7871,
  "\u2581Another": 7872,
  "Con": 7873,
  "\u2581term\u00edn": 7874,
  "te\u013eov": 7875,
  "\u2581Cooperation": 7876,
  "\u2581vra\u017ed": 7877,
  "\u2581sport": 7878,
  "zel": 7879,
  "\u2581reliable": 7880,
  "\u2581SE": 7881,
  "\u2581ve\u013ek\u00e1": 7882,
  "\u2581composition": 7883,
  "\u2581v\u00fdpo\u010det": 7884,
  "\u2581middle": 7885,
  "\u2581star\u00fd": 7886,
  "pad\u00e1": 7887,
  "\u2581books": 7888,
  "\u2581Hold": 7889,
  "\u2581Ach": 7890,
  "\u2581incurred": 7891,
  "\u2581slow": 7892,
  "\u2581judicial": 7893,
  "\u2581\u0161t": 7894,
  "\u2581R\u00e1d": 7895,
  "\u2581sadzba": 7896,
  "\u2581occurred": 7897,
  "\u2581centr\u00e1lny": 7898,
  "\u2581PRC": 7899,
  "\u2581adresu": 7900,
  "\u2581prepravu": 7901,
  "ve\u010f": 7902,
  "\u2581pou\u017eit\u00ed": 7903,
  "rad\u00ed": 7904,
  "amino": 7905,
  "\u2581imported": 7906,
  "nut\u00fd": 7907,
  "300": 7908,
  "\u2581zlato": 7909,
  "work": 7910,
  "zin": 7911,
  "\u2581jurisdiction": 7912,
  "\u2581v\u00fdznamn\u00fd": 7913,
  "\u2581riadi": 7914,
  "tiv": 7915,
  "\u2581manufacturing": 7916,
  "\u2581veciach": 7917,
  "\u2581\u00fazemie": 7918,
  "v\u00e1dza": 7919,
  "\u2581easier": 7920,
  "\u2581excluding": 7921,
  "\u2581fotografie": 7922,
  "\u2581radu": 7923,
  "tak": 7924,
  "\u0148ova\u0165": 7925,
  "\u2581marriage": 7926,
  "\u2581videli": 7927,
  "\u00e1lnych": 7928,
  "\u2581\u0161\u00e9f": 7929,
  "\u2581najlep\u0161\u00edch": 7930,
  "\u2581sku": 7931,
  "amous": 7932,
  "pr\u00ed": 7933,
  "\u2581tretie": 7934,
  "d\u00e1": 7935,
  "\u2581formy": 7936,
  "ete": 7937,
  "\u2581hovor\u00edm": 7938,
  "iz\u00e1cia": 7939,
  "yt": 7940,
  "\u2581Stred": 7941,
  "\u00f3za": 7942,
  "\u2581electrical": 7943,
  "isten": 7944,
  "\u2581Communities": 7945,
  "\u2581najprv": 7946,
  "\u2581repair": 7947,
  "\u2581Christmas": 7948,
  "\u2581accident": 7949,
  "dro": 7950,
  "rg": 7951,
  "\u2581harmonised": 7952,
  "\u2581WTO": 7953,
  "\u2581poistenia": 7954,
  "\u2581join": 7955,
  "\u2581vyu\u017eitie": 7956,
  "\u2581bezodkladne": 7957,
  "\u2581Main": 7958,
  "\u2581aspekty": 7959,
  "\u00f3m": 7960,
  "\u2581Mad": 7961,
  "\u2581sused": 7962,
  "dre": 7963,
  "p\u00ed\u0161": 7964,
  "\u2581moderate": 7965,
  "\u2581Bud": 7966,
  "\u2581ochrann": 7967,
  "k\u00e1ch": 7968,
  "\u2581v\u00fdnimky": 7969,
  "\u2581Note": 7970,
  "\u2581lek\u00e1rovi": 7971,
  "zna\u010d": 7972,
  "\u2581laboratory": 7973,
  "\u2581um": 7974,
  "enter": 7975,
  "\u2581poskytnutie": 7976,
  "\u2581personnel": 7977,
  "\u2581shut": 7978,
  "\u2581pes": 7979,
  "\u2581disk": 7980,
  "What": 7981,
  "\u2581infections": 7982,
  "\u2581zase": 7983,
  "\u2581zdie\u013ea": 7984,
  "\u2581\u010dlenom": 7985,
  "\u2581sell": 7986,
  "\u2581ned\u00e1vno": 7987,
  "\u2581za\u010diatok": 7988,
  "\u00ae": 7989,
  "\u2581voted": 7990,
  "ising": 7991,
  "\u2581Mike": 7992,
  "\u2581Procedure": 7993,
  "ass": 7994,
  "\u2581screen": 7995,
  "\u2581uplatni\u0165": 7996,
  "zz": 7997,
  "\u2581Peg": 7998,
  "\u2581Review": 7999,
  "\u2581ci": 8000,
  "\u2581podmienkou": 8001,
  "\u2581fa": 8002,
  "\u2581shared": 8003,
  "mailov": 8004,
  "\u2581Partnership": 8005,
  "\u2581derivatives": 8006,
  "\u2581zdrav": 8007,
  "NO": 8008,
  "\u2581injekcie": 8009,
  "\u2581Alex": 8010,
  "\u2581Rezerv": 8011,
  "\u2581od\u00eds\u0165": 8012,
  "\u2581discharge": 8013,
  "\u2581pray": 8014,
  "\u2581pod\u00e1vania": 8015,
  "\u2581slu\u017eba": 8016,
  "\u2581exposures": 8017,
  "fekt": 8018,
  "V\u00e4\u010d\u0161ina": 8019,
  "div": 8020,
  "\u2581investors": 8021,
  "\u2581vz\u00e1jomn\u00e9": 8022,
  "potreb": 8023,
  "\u2581hl\u00e1sen\u00e9": 8024,
  "\u2581kamar\u00e1": 8025,
  "\u2581str\u00e1nok": 8026,
  "\u2581fibres": 8027,
  "\u2581prij\u00edma\u0165": 8028,
  "\u2581proportion": 8029,
  "\u2581bone": 8030,
  "ket": 8031,
  "\u25812.5": 8032,
  "\u2581mu\u017ea": 8033,
  "\u2581label": 8034,
  "\u2581pozit\u00edvne": 8035,
  "\u2581mechanizmus": 8036,
  "\u2581sum": 8037,
  "\u2581involvement": 8038,
  "\u2581niektor": 8039,
  "\u2581Cat": 8040,
  "\u2581pl\u00e1ny": 8041,
  "\u2581Ali": 8042,
  "\u2581Ur\u010dite": 8043,
  "n\u00edka": 8044,
  "\u2581prv\u00fdkr\u00e1t": 8045,
  "\u2581button": 8046,
  "\u2581beneficiaries": 8047,
  "ite\u013en\u00e9": 8048,
  "cal": 8049,
  "long": 8050,
  "an\u00ed": 8051,
  "tik": 8052,
  "\u2581\u0161t\u00e1tnu": 8053,
  "get": 8054,
  "\u03bc": 8055,
  "\u2581Should": 8056,
  "\u2581[3].": 8057,
  "\u2581zdroja": 8058,
  "\u2581African": 8059,
  "\u2581fellow": 8060,
  "FA": 8061,
  "\u2581Dohode": 8062,
  "\u2581Hod": 8063,
  "\u2581south": 8064,
  "responsibilities": 8065,
  "\u2581governing": 8066,
  "\u00e1lnej": 8067,
  "001": 8068,
  "vl\u00e1da": 8069,
  "\u2581prayer": 8070,
  "/12": 8071,
  "\u2581telesnej": 8072,
  "\u2581orders": 8073,
  "\u2581competence": 8074,
  "\u2581es": 8075,
  "\u2581nepovedal": 8076,
  "\u2581placing": 8077,
  "\u2581Nice": 8078,
  "sten": 8079,
  "\u2581consisting": 8080,
  "KY": 8081,
  "\u2581adjusted": 8082,
  "\u2581baseline": 8083,
  "\u2581meant": 8084,
  "\u2581Inc": 8085,
  "\u2581corporate": 8086,
  "\u2581worse": 8087,
  "\u2581Photo": 8088,
  "\u2581lamp": 8089,
  "\u2581lehote": 8090,
  "\u2581rozhodla": 8091,
  "\u2581Schengen": 8092,
  "\u2581na\u0161i": 8093,
  "field": 8094,
  "\u2581Poly": 8095,
  "\u2581officer": 8096,
  "\u2581novo": 8097,
  "\u2581prijm\u00fa": 8098,
  "\u2581tested": 8099,
  "\u2581va\u0161ich": 8100,
  "\u2581advanced": 8101,
  "\u2581dosiahli": 8102,
  "\u2581se": 8103,
  "\u2581kontrolou": 8104,
  "\u2581verejnom": 8105,
  "\u2581zmluva": 8106,
  "\u2581believes": 8107,
  "\u2581packaging": 8108,
  "\u258160%": 8109,
  "\u2581Th": 8110,
  "\u2581cukor": 8111,
  "\u2581Nem\u00e1m": 8112,
  "\u2581v\u00fdvozu": 8113,
  "\u2581Sil": 8114,
  "\u2581kedyko\u013evek": 8115,
  "\u2581ne\u017eiaduci": 8116,
  "\u2581excessive": 8117,
  "200": 8118,
  "mol": 8119,
  "ston": 8120,
  "\u2581Norway": 8121,
  "\u2581maritime": 8122,
  "\u2581Registration": 8123,
  "pustil": 8124,
  "\u2581shower": 8125,
  "\u2581SPECIAL": 8126,
  "\u2581alia": 8127,
  "-8": 8128,
  "\u2581Regional": 8129,
  "\u2581ice": 8130,
  "\u2581v\u00fdzvy": 8131,
  "otherapy": 8132,
  "\u2581failed": 8133,
  "grel": 8134,
  "lek": 8135,
  "mot": 8136,
  "\u2581character": 8137,
  "butyl": 8138,
  "\u2581Additional": 8139,
  "\u2581Travel": 8140,
  "\u2581primarily": 8141,
  "\u25812016.": 8142,
  "\u2581tissue": 8143,
  "\u2581height": 8144,
  "\u2581honey": 8145,
  "\u2581posledn\u00e9": 8146,
  "\u2581ur\u010denie": 8147,
  "\u2581v\u00fdroba": 8148,
  "\u2581pr\u00e1vnej": 8149,
  "ito": 8150,
  "\u2581north": 8151,
  "\u2581f\u00e1zy": 8152,
  "\u2581potrebn\u00fdch": 8153,
  "\u2581guests": 8154,
  "\u2581MA": 8155,
  "\u2581rad\u0161ej": 8156,
  "\u2581figures": 8157,
  "rate": 8158,
  "\u2581consult": 8159,
  "mil": 8160,
  "\u2581zle": 8161,
  "Co": 8162,
  "Ho": 8163,
  "\u2581z\u00e1znam": 8164,
  "\u2581input": 8165,
  "alog": 8166,
  "\u2581keeping": 8167,
  "\u2581stanoven\u00fdmi": 8168,
  "\u2581v\u00fd\u0161ku": 8169,
  "\u010di\u0165": 8170,
  "/2008": 8171,
  "\u2581po\u010f": 8172,
  "ology": 8173,
  "\u013a": 8174,
  "\u2581Bill": 8175,
  "\u2581ROZHODNUTIE": 8176,
  "\u2581brothers": 8177,
  "\u2581Eurosystem": 8178,
  "\u2581zastavi\u0165": 8179,
  "\u2581pump": 8180,
  "\u2581urobili": 8181,
  "\u2581znie": 8182,
  "\u2581qualified": 8183,
  "\u2581v\u0161eobecne": 8184,
  "\u2581formou": 8185,
  "\u2581povedz": 8186,
  "\u2581priate\u013eov": 8187,
  "\u2581hre": 8188,
  "\u2581prijat\u00ed": 8189,
  "\u2581subsidiarity": 8190,
  "AS": 8191,
  "\u2581NE": 8192,
  "ird": 8193,
  "\u2581adjustments": 8194,
  "\u2581satellite": 8195,
  "\u2581Obsah": 8196,
  "\u2581Staff": 8197,
  "\u2581refunds": 8198,
  "\u0161\u00edch": 8199,
  "\u2581eur\u00f3psk": 8200,
  "\u2581ch\u00fdba": 8201,
  "\u2581doprava": 8202,
  "\u2581conference": 8203,
  "\u2581muscle": 8204,
  "\u2581pl\u00e1ne": 8205,
  "\u2581bleeding": 8206,
  "\u2581leteckej": 8207,
  "\u2581fee": 8208,
  "\u2581povinn\u00e9": 8209,
  ".10.": 8210,
  "\u2581zlo\u017eiek": 8211,
  "pal": 8212,
  "\u2581fulfilled": 8213,
  "\u2581communicate": 8214,
  "\u2581vodou": 8215,
  "\u2581mili\u00e1rd": 8216,
  "ept": 8217,
  "\u2581nim": 8218,
  "\u2581print": 8219,
  "\u2581sna\u017eil": 8220,
  "\u2581transitional": 8221,
  "\u2581urban": 8222,
  "hni": 8223,
  "\u2581doplnenia": 8224,
  "\u2581n\u00e1rod": 8225,
  "enstvo": 8226,
  "\u2581Credit": 8227,
  "\u2581vonkaj\u0161ie": 8228,
  "\u2581udr\u017eate\u013en\u00fd": 8229,
  "\u2581passed": 8230,
  "\u2581znak": 8231,
  "\u2581stopped": 8232,
  "\u2581submission": 8233,
  "\u2581cream": 8234,
  "excl": 8235,
  "\u2581105": 8236,
  "\u2581science": 8237,
  "\u2581obchodnej": 8238,
  "\u2581obr\u00e1zok": 8239,
  "\u2581p\u00edsomnej": 8240,
  "\u2581robia": 8241,
  "\u2581rybolov": 8242,
  "life": 8243,
  "\u2581fixing": 8244,
  "\u2581Hum": 8245,
  "...\"": 8246,
  "\u2581bojova\u0165": 8247,
  "\u2581boat": 8248,
  "\u2581f\u00e1ze": 8249,
  "\u2581mountain": 8250,
  "\u2581Hall": 8251,
  "\u2581Bureau": 8252,
  "\u0161enie": 8253,
  "\u2581pas": 8254,
  "\u2581dealing": 8255,
  "\u2581KAPITOLA": 8256,
  "\u2581d\u00e1vok": 8257,
  "\u2581hrad": 8258,
  "\u2581priestorov": 8259,
  "\u2581Hodnotenie": 8260,
  "\u2581consent": 8261,
  "\u2581reforms": 8262,
  "\u2581typov": 8263,
  "RA": 8264,
  "\u2581Point": 8265,
  "\u2581karty": 8266,
  "\u2581Gre": 8267,
  "\u2581apparatus": 8268,
  "\u2581osob\u00e1m": 8269,
  "\u2581White": 8270,
  "\u25815-": 8271,
  "\u2581Head": 8272,
  "\u2581V\u00fdroba": 8273,
  "ase": 8274,
  "\u2581Fer": 8275,
  "\u2581powerful": 8276,
  "jde": 8277,
  "\u2581schopn\u00e9": 8278,
  "org": 8279,
  "\u2581V\u0161eobecn\u00e9": 8280,
  "\u2581Mediterranean": 8281,
  "\u25811991": 8282,
  "\u2581z\u00e1kazn\u00edkov": 8283,
  "\u2581ur": 8284,
  "\u2581Podrobnosti": 8285,
  "\u2581mere": 8286,
  "\u2581pr\u00fad": 8287,
  "\u2581parent": 8288,
  "\u2581vlastn\u00edctva": 8289,
  "ert": 8290,
  "cur": 8291,
  "\u2581accessories": 8292,
  "\u2581Investment": 8293,
  "\u2581seeing": 8294,
  "\u2581tel": 8295,
  "VE": 8296,
  "\u2581Gen": 8297,
  "\u2581zn\u00e1my": 8298,
  "\u2581gain": 8299,
  "\u2581\u010dak\u00e1": 8300,
  "jedna": 8301,
  "\u2581happening": 8302,
  "\u017ea": 8303,
  "\u2581SO": 8304,
  "\u2581chu\u0165": 8305,
  "\u2581Mat": 8306,
  "\u2581brand": 8307,
  "\u2581infekcie": 8308,
  "421": 8309,
  "inou": 8310,
  "\u2581worship": 8311,
  "\u2581vykonan\u00e9": 8312,
  "\u2581\u0160panielsko": 8313,
  "ably": 8314,
  "MM": 8315,
  "\u2581hovor": 8316,
  "\u2581Opinion": 8317,
  "olu": 8318,
  "ejto": 8319,
  "\u2581LIEKU": 8320,
  "\u2581Canada": 8321,
  "\u2581mid": 8322,
  "\u2581finding": 8323,
  "\u2581mention": 8324,
  "AV": 8325,
  "alo": 8326,
  "\u2581NAME": 8327,
  "\u2581agriculture": 8328,
  "\u2581pr\u00edspevku": 8329,
  "\u2581secondary": 8330,
  "v\u00e4\u010d": 8331,
  "\u2581Could": 8332,
  "\u2581demonstrate": 8333,
  "\u2581r\u00f4znymi": 8334,
  "\u2581comfort": 8335,
  "\u2581Switzerland": 8336,
  "\u2581equity": 8337,
  "\u25812003,": 8338,
  "\u2581vz\u0165ahov": 8339,
  "\u2581SP": 8340,
  "\u2581star\u0161\u00ed": 8341,
  "\u2581rybn\u00e9": 8342,
  "\u2581hlavu": 8343,
  "\u2581bra": 8344,
  "\u2581doteraz": 8345,
  "\u2581represents": 8346,
  "\u2581rapid": 8347,
  "\u2581caught": 8348,
  "2017": 8349,
  "\u2581specify": 8350,
  "\u2581reformy": 8351,
  "\u2581band": 8352,
  "\u2581medzin\u00e1rodn\u00e9ho": 8353,
  "\u2581zvyk": 8354,
  "-7": 8355,
  "\u2581Light": 8356,
  "\u2581AT": 8357,
  "\u2581Ich": 8358,
  "N\u00c9": 8359,
  "\u2581Robert": 8360,
  "\u2581fr": 8361,
  "\u2581t\u00fdmi": 8362,
  "\u2581zalo\u017een\u00e1": 8363,
  "\u2581harm": 8364,
  "en\u00e9ho": 8365,
  "sk\u00fa\u0161a": 8366,
  "\u2581anal\u00fdzu": 8367,
  "\u2581Zatia\u013e": 8368,
  "\u2581plavidiel": 8369,
  "hlas": 8370,
  "yberte": 8371,
  "\u2581dial\u00f3gu": 8372,
  "\u2581Slu\u017eby": 8373,
  "\u2581proste": 8374,
  "\u2581Music": 8375,
  "\u2581vybavenie": 8376,
  "\u2581Res": 8377,
  "\u2581sp\u00f4soby": 8378,
  "\u2581Druh": 8379,
  "\u2581r\u00fdchle": 8380,
  "sled": 8381,
  "\u2581Kol": 8382,
  "\u2581ca": 8383,
  "\u2581democratic": 8384,
  "\u2581Bon": 8385,
  "ERS": 8386,
  "\u00e1da": 8387,
  "\u2581sp\u00f4sobilosti": 8388,
  "\u2581farby": 8389,
  "\u2581z\u00e1vis\u00ed": 8390,
  "cko": 8391,
  "ini": 8392,
  "had": 8393,
  "\u2581firms": 8394,
  "\u2581turistick": 8395,
  "\u2581Out": 8396,
  "\u2581tree": 8397,
  "\u2581ciest": 8398,
  "zainteresovan\u00fdch": 8399,
  "gas": 8400,
  "\u2581occupancy": 8401,
  "\u2581transakci\u00ed": 8402,
  "\u2581predlo\u017eila": 8403,
  "\u2581skvel\u00e9": 8404,
  "\u2581EZVO": 8405,
  "\u2581Foto": 8406,
  "\u2581victims": 8407,
  "\u2581kostol": 8408,
  "win": 8409,
  "\u2581IAS": 8410,
  "\u2581zbran\u00ed": 8411,
  "\u2581bought": 8412,
  "\u2581Fu": 8413,
  "lip": 8414,
  "\u2581udr\u017ea\u0165": 8415,
  "\u2581vyh": 8416,
  "GA": 8417,
  "\u2581zachova\u0165": 8418,
  "bb": 8419,
  "\u2581dizajn": 8420,
  "\u2581mysli": 8421,
  "\u2581labelling": 8422,
  "\u2581wild": 8423,
  "-10": 8424,
  "\u25813).": 8425,
  "\u2581reserve": 8426,
  "\u2581sp\u013a\u0148a\u0165": 8427,
  "diel": 8428,
  "\u2581capsules": 8429,
  "\u2581perhaps": 8430,
  "\u2581faktory": 8431,
  "\u2581prechodn\u00e9": 8432,
  "\u2581registra": 8433,
  "amid": 8434,
  "cher": 8435,
  "\u2581met\u00f3d": 8436,
  "\u2581stupid": 8437,
  "\u2581talent": 8438,
  "\u2581upper": 8439,
  "\u2581calendar": 8440,
  "\u2581ozna\u010denie": 8441,
  "\u2581s\u00fahlas": 8442,
  "-9": 8443,
  "\u2581z\u00e1pis": 8444,
  "\u2581chloride": 8445,
  "\u2581none": 8446,
  "nku": 8447,
  "\u2581transition": 8448,
  "TAIL": 8449,
  "\u2581dodr\u017eiava\u0165": 8450,
  "eni": 8451,
  "\u2581Ze": 8452,
  "\u2581\u010c\u013dR": 8453,
  "\u2581ongoing": 8454,
  "\u2581EFTA": 8455,
  "\u2581\u010fal\u0161iu": 8456,
  "\u2581v\u00e4\u010d\u0161inou": 8457,
  "country": 8458,
  "\u2581crew": 8459,
  "USE": 8460,
  "real": 8461,
  "\u2581matersk": 8462,
  "nym": 8463,
  "\u2581nationals": 8464,
  "pozor": 8465,
  "\u2581song": 8466,
  "\u2581tabu\u013eky": 8467,
  "\u2581baz\u00e9n": 8468,
  "\u2581krvn\u00e9": 8469,
  "gie": 8470,
  "\u017eiar": 8471,
  "\u2581Ab": 8472,
  "\u2581heavy": 8473,
  "\u2581glad": 8474,
  "\u2581inserted": 8475,
  "\u2581str\u00e1vi": 8476,
  "\u25813:": 8477,
  "\u2581gender": 8478,
  "\u2581IF": 8479,
  "\u2581claimed": 8480,
  "\u2581Moj\u017ei\u0161": 8481,
  "\u2581supplies": 8482,
  "tain": 8483,
  "\u2581nejak\u00fa": 8484,
  "\u2581v\u00fdstav": 8485,
  "\u2581\u013eahk\u00e9": 8486,
  "\u2581met\u00f3da": 8487,
  "\u2581client": 8488,
  "\u2581becomes": 8489,
  "\u2581recommendation": 8490,
  "\u2581Ant": 8491,
  "\u2581Stav": 8492,
  "\u2581ukazuje": 8493,
  "\u2581Mnoh": 8494,
  "a\u010dn\u00fdch": 8495,
  "\u2581klientov": 8496,
  "\u2581warning": 8497,
  "\u2581hospod\u00e1rskom": 8498,
  "\u2581160": 8499,
  "\u2581provider": 8500,
  "\u2581sentence": 8501,
  "\u2581ourselves": 8502,
  "\u2581\u0161kole": 8503,
  "\u2581Wednesday": 8504,
  "\u2581accessible": 8505,
  "\u2581preparing": 8506,
  "key": 8507,
  "\u2581Word": 8508,
  "\u2581Nov\u00fd": 8509,
  "\u2581HR": 8510,
  "\u2581plane": 8511,
  "\u2581str\u00e1\u017e": 8512,
  "\u2581forces": 8513,
  "\u2581trest": 8514,
  "\u2581srdci": 8515,
  "\u2581tukov": 8516,
  "\u2581s\u00fahlas\u00ed": 8517,
  "\u2581Saint": 8518,
  "\u2581despite": 8519,
  "\u2581efekt": 8520,
  "\u2581informova\u0165": 8521,
  "schopnosti": 8522,
  "\u2581behaviour": 8523,
  "\u2581interpretation": 8524,
  "\u2581odstr\u00e1nenie": 8525,
  "\u2581Mobil": 8526,
  "\u2581\u0161t\u00e1tne": 8527,
  "ovac\u00edch": 8528,
  "\u2581attached": 8529,
  "\u2581conversion": 8530,
  "\u2581Brazil": 8531,
  "\u2581miestnosti": 8532,
  "\u2581platform": 8533,
  "\u2581obmedzenie": 8534,
  "\u2581in\u0161tit\u00faciami": 8535,
  "\u2581vy\u0161\u0161ia": 8536,
  "\u2581vl\u00e1kien": 8537,
  "law": 8538,
  "\u2581museli": 8539,
  "\u2581\u00fa\u010dtu": 8540,
  "\u2581ned\u00e1": 8541,
  "\u2581Pozor": 8542,
  "\u2581issuing": 8543,
  "\u2581owner": 8544,
  "\u2581n\u00e1rok": 8545,
  "nik\u00e1": 8546,
  "vice": 8547,
  "\u2581CAS": 8548,
  "\u2581individu\u00e1lne": 8549,
  "ions": 8550,
  "\u2581broad": 8551,
  "\u2581relax": 8552,
  "\u2581akoby": 8553,
  "\u2581v\u00fdberu": 8554,
  "\u2581obchodovania": 8555,
  "\u2581vlastn\u00fd": 8556,
  "mb": 8557,
  "\u25811.3": 8558,
  "\u2581refers": 8559,
  "\u2581D\u0148a": 8560,
  "\u2581wonderful": 8561,
  "\u2581introduce": 8562,
  "\u2581politike": 8563,
  "\u2581vo\u013en\u00fd": 8564,
  "IF": 8565,
  "\u2581spoj": 8566,
  "\u2581v\u00fdrobkami": 8567,
  "\u2581ideas": 8568,
  "ety": 8569,
  "\u2581careful": 8570,
  "\u2581style": 8571,
  "\u2581Nu": 8572,
  "PE": 8573,
  "\u2581Fr": 8574,
  "\u2581poslal": 8575,
  "\u2581loved": 8576,
  "\u2581breakfast": 8577,
  "\u2581trvania": 8578,
  "\u2581D\u00e1m": 8579,
  "\u2581Via": 8580,
  "\u2581rubber": 8581,
  "ktiv": 8582,
  "\u2581vy\u017eadova\u0165": 8583,
  "\u2581fault": 8584,
  "\u2581postav": 8585,
  "osa": 8586,
  "stv\u00e1": 8587,
  "\u2581nevz\u0165ahuje": 8588,
  "kri": 8589,
  "\u25812.3": 8590,
  "\u2581haemoglobin": 8591,
  "\u2581k\u013e\u00fa\u010dov\u00e9": 8592,
  "\u2581\u00fa\u010dtovn": 8593,
  "UL": 8594,
  "bod": 8595,
  "iti": 8596,
  "DS": 8597,
  "\u2581ring": 8598,
  "\u2581arms": 8599,
  "transparentnosti": 8600,
  "\u2581planet": 8601,
  "\u2581learned": 8602,
  "\u2581tepla": 8603,
  "\u2581pr\u00edstupom": 8604,
  "\u2581v\u010dera": 8605,
  "po\u010d\u00edta": 8606,
  "\u2581spravodlivosti": 8607,
  "\u2581nejde": 8608,
  "\u2581thousand": 8609,
  "\u2581probl\u00e9mom": 8610,
  "\u2581zmluvn\u00fdch": 8611,
  "n\u00edc": 8612,
[...]
